[PAD]
[UNK]
!
"
#
$
&
'
(
)
*
,
-
.
/
0
1
2
3
4
5
6
7
8
9
:
;
=
?
A
B
C
D
E
F
G
H
I
J
K
L
M
N
O
P
Q
R
S
T
U
V
W
X
Y
Z
\
_
a
b
c
d
e
f
g
h
i
j
k
l
m
n
o
p
q
r
s
t
u
v
w
x
y
z
the
to
of
in
and
on
for
39
##s
that
The
with
as
at
its
is
said
by
has
Reuters
from
it
AP
an
his
will
was
gt
lt
US
after
be
have
##ing
new
over
their
quot
are
year
up
first
##ed
two
more
he
but
Monday
Wednesday
Tuesday
Thursday
this
company
New
Friday
Inc
out
one
##d
than
against
into
Iraq
not
last
about
yesterday
Microsoft
who
were
they
been
million
week
three
had
Corp
world
com
Sunday
United
time
would
oil
##er
AFP
which
years
could
game
government
people
today
##ly
second
prices
President
percent
off
when
next
##e
season
says
Saturday
NEW
China
third
##y
back
or
night
YORK
quarter
10
team
software
Bush
day
all
win
Internet
##a
World
2004
may
announced
market
No
stocks
billion
can
security
some
four
high
In
000
##t
record
top
end
most
killed
European
victory
down
officials
other
month
deal
American
sales
##r
Cup
group
plans
It
Oil
business
##n
British
before
largest
country
##es
set
India
home
reported
Japan
States
Minister
Google
lead
IBM
expected
no
York
Iraqi
you
just
former
five
made
technology
##o
won
least
maker
target
take
final
report
between
Red
make
during
service
under
companies
talks
if
##i
according
http
chief
hit
what
them
news
help
another
long
Co
profit
www
based
major
League
now
leader
run
bid
Web
giant
way
##ers
say
South
state
With
her
election
through
Australia
get
ticker
reuters
HREF
since
coach
investor
UN
left
still
After
plan
industry
John
while
early
search
International
being
him
Prime
police
Palestinian
court
Group
Sox
Open
Apple
amp
agreed
music
military
##al
old
Oracle
only
Israeli
months
days
##m
nuclear
11
system
start
computer
growth
Olympic
open
Intel
State
because
move
phone
FullQuote
aspx
fullquote
quickinfo
war
Russia
like
England
six
Windows
mobile
president
20
online
biggest
services
official
North
including
Russian
cut
ago
##on
WASHINGTON
strong
held
Iran
Washington
Bank
there
National
round
higher
Europe
face
earnings
players
half
Up
latest
Gaza
released
so
Canadian
city
go
points
ahead
Baghdad
many
12
PeopleSoft
rose
space
data
EU
loss
shares
##l
By
2005
Pakistan
much
games
buy
attack
Stocks
UK
part
For
dollar
Boston
firm
troops
Sports
even
big
play
found
head
36
users
Network
Linux
again
fourth
America
PC
Israel
Two
Security
But
pay
stock
West
price
trade
LONDON
French
30
release
Korea
Kerry
international
man
past
nation
called
economy
executive
presidential
where
forces
free
key
weeks
should
use
Australian
near
As
15
reports
An
work
San
Street
share
economic
One
gold
Research
around
federal
right
##h
NASA
offer
took
fell
public
beat
Florida
Sun
nearly
title
Union
Darfur
investors
jobs
series
News
number
Arafat
used
Wall
##S
seven
how
City
your
close
Japanese
put
Court
any
Press
car
support
17
do
September
France
October
attacks
leading
per
Quote
workers
contract
##an
global
killing
Yankees
14
late
led
source
Says
Game
St
men
Federal
rival
Britain
50
case
power
peace
More
despite
video
best
18
To
test
launch
line
version
leaders
##A
13
drug
agreement
demand
region
also
following
100
Sony
Sudan
General
might
rise
25
16
products
bomb
##k
On
race
program
making
California
lower
Canada
return
both
away
##man
customers
al
low
well
November
future
player
##rs
TV
campaign
decision
meeting
CEO
such
charges
recent
wireless
here
research
good
At
due
give
job
This
football
He
keep
minister
Michael
death
Commission
digital
winning
running
life
place
shot
Profit
capital
May
scored
Is
Shares
re
told
24
Air
champion
financial
Computer
Profile
political
results
##en
network
##th
manager
whether
##ment
costs
trial
Hurricane
##ion
Chinese
without
taking
several
site
##le
saying
Texas
launched
##ic
show
Series
little
national
chip
elections
##0
become
cost
school
interest
Wireless
eight
straight
media
Williams
across
##in
better
battle
sell
##M
agency
quarterly
increase
Germany
##us
match
weekend
Afghanistan
own
Oct
##E
dead
management
SAN
lost
strike
women
##able
Yahoo
history
using
net
German
consumer
Over
likely
19
foreign
morning
hopes
rate
fall
##N
vote
she
hostage
21
House
##u
mail
fight
Department
come
warned
Indian
Search
bank
tax
action
fans
August
Nations
##or
same
Afghan
##ling
showed
IT
Nov
anti
posted
among
accused
ever
party
operating
London
behind
did
few
##ting
Africa
rates
small
Report
going
too
##g
Athens
NFL
Space
iPod
trading
Former
claims
When
board
signed
violence
##T
University
militants
Spain
full
possible
Chicago
##p
wins
Online
amid
information
takes
Jones
control
point
David
Big
bankruptcy
television
fire
medal
almost
cash
Olympics
look
earlier
scientists
First
phones
Americans
injured
see
got
less
Houston
takeover
##5
African
barrel
Champions
Championship
Test
crude
growing
helped
began
came
nine
opening
Sept
profits
soldiers
Blair
change
500
field
step
energy
Giants
Ltd
East
ended
star
boost
term
##ter
judge
performance
hold
money
offering
Secretary
senior
those
died
study
hard
Sales
production
reach
##ry
Deal
High
career
unit
##ive
Not
Airways
Games
access
air
speed
##2
##D
already
general
northern
meet
cuts
##L
##nt
revenue
Grand
If
yet
call
far
Service
must
southern
soon
Sharon
defense
hours
ATHENS
health
##1
gets
NBA
Top
efforts
Three
conference
law
Chief
They
begin
151
Business
members
force
calls
countries
concerns
short
corporate
##ation
##ia
Association
Out
Reserve
league
Italian
sale
gave
Communications
Systems
stop
Airlines
Paul
ready
##z
Cisco
fuel
markets
Asia
within
yards
outside
trying
FRANCISCO
Arsenal
Tokyo
gas
computers
George
teams
23
weapons
TOKYO
Software
All
visit
we
Dell
enough
file
Bill
Ivan
arrested
continue
Council
drop
reached
##est
size
##I
aimed
others
product
stake
charged
forecast
find
sign
until
From
airline
need
analysts
main
rebels
human
makes
systems
club
competition
personal
Army
opposition
failed
28
Manchester
local
White
looking
taken
legal
popular
starting
threat
Yasser
office
continued
There
list
authorities
union
Miami
Palestinians
FONT
cell
retailer
drive
side
wants
27
Time
effort
once
Madrid
each
further
known
selling
rebel
aid
Davis
filed
##less
finally
spending
Asian
Dollar
store
thousands
##ity
heart
investment
raised
central
Update
2006
designed
crisis
BAGHDAD
DVD
family
quarterback
rights
toward
Muslim
executives
goal
coming
pressure
PM
operations
22
Boeing
Trade
injury
seen
##c
Gold
Tech
fighting
rally
Bay
hits
##ts
Calif
Prices
Francisco
fired
Stadium
chairman
terror
Real
children
gains
getting
large
##R
That
Al
ruling
##B
insurance
policy
##is
level
went
##ies
dollars
##b
Coast
Nokia
desktop
name
##ch
CBS
THE
XP
Mobile
engine
##ar
Bowl
Los
center
AMD
allow
euro
powerful
working
then
charge
rivals
Exchange
named
200
##ton
prime
problems
annual
times
Delta
Ryder
double
Center
HP
holiday
supply
##ful
40
Dutch
Islamic
never
sent
##te
Talks
##C
Astros
CP
Singh
Italy
army
flight
fund
##age
##ce
investigation
planned
provide
##3
sold
##ie
Mark
area
expectations
Tony
businesses
AT
UPDATE
##el
Now
attempt
private
turn
rules
Putin
stores
order
Brazil
Mart
fears
##ge
Police
chance
Green
Johnson
Wal
Yukos
available
Angeles
risk
Paris
##ck
hope
##ate
ban
consumers
development
push
December
approved
Ireland
baseball
##Y
runs
Win
confirmed
Congress
And
Will
asked
above
try
missing
unveiled
cent
championship
regulators
Disney
Music
Seattle
Team
want
warning
Some
retail
fraud
Woods
terrorism
card
chips
focus
Dow
##ty
Be
current
probe
Wins
food
rising
##et
Fallujah
issue
decided
survey
great
suicide
26
shows
Brown
bring
turned
2003
leave
Park
defeat
Down
server
Football
generation
Foreign
equipment
merger
post
process
##4
claim
radio
debt
Day
Year
administration
build
employees
worth
Taiwan
suspected
Blue
firms
Mike
bill
400
hand
lawsuit
giving
Data
increased
track
##P
Sprint
groups
later
ranked
Earth
body
given
Steve
devices
fresh
town
closer
Aug
Indonesia
Tour
claimed
color
##ness
Global
sites
##ian
Strip
alleged
##ted
Democratic
Greece
losses
Minnesota
spokesman
captain
issues
moved
offers
##6
35
inning
opened
added
mission
received
Detroit
spam
Ford
co
outlook
Atlanta
Rise
every
##9
prison
touchdown
Its
event
urged
Back
Drug
ending
Four
##X
Cardinals
Post
tech
washingtonpost
January
comes
create
militant
does
##ors
##st
Spanish
researchers
role
winter
July
browser
clear
very
tournament
##7
##x
division
ground
hospital
ruled
Virginia
applications
losing
Technology
##ping
Kashmir
fifth
related
##ist
NewsFactor
single
forward
storage
29
Chelsea
Howard
MS
drugs
position
wounded
##ary
Senate
experts
Korean
know
Nasdaq
building
networks
signs
##re
Najaf
sources
faces
station
Toronto
You
playing
water
Crude
Stock
Turkey
let
##O
Nextel
##led
range
##U
Supreme
didn
CHICAGO
Karzai
AOL
Scientists
basketball
Company
Tiger
able
don
played
Hollywood
Louis
Zealand
Beijing
Powell
break
evidence
minutes
##ra
started
Baseball
We
Mars
Off
offensive
remain
##ne
Office
Mac
debate
What
holding
proposed
##ging
acquire
Net
woman
Buy
Mexico
Record
Warner
settle
statement
western
##um
Dec
accounting
forced
potential
War
house
officer
road
##ure
##H
homes
looks
seeking
average
huge
threatened
NHL
blast
form
stage
End
hundreds
winner
##8
Home
Irish
whose
Philadelphia
device
stay
Stewart
##il
Election
bad
##F
31
##out
MW
Major
along
code
Server
draw
our
60
confidence
##ey
Sadr
rejected
Patriots
became
remains
staff
beating
soccer
suspended
Black
Fed
James
Qaeda
leaving
offered
##G
Masters
SEC
acquisition
kidnapped
Egypt
Carolina
Party
miss
though
##les
Bonds
Firefox
border
cleric
dropped
real
Ukraine
safety
special
wanted
carrier
Ohio
dispute
light
illegal
returned
save
terrorist
course
doesn
having
provider
Michigan
Nigeria
rocket
Times
challenge
medical
rest
supplies
Services
explosion
iTunes
raise
director
decline
millions
streak
##am
Christmas
Defense
row
##nce
avoid
interim
summer
##K
hostages
scandal
expects
Despite
member
Enron
changes
##way
electronics
press
proposal
storm
nations
Jets
Study
closed
futures
highest
MSN
continues
travel
Higher
LOS
commercial
plane
Central
Eagles
Haiti
Media
join
kept
recently
slow
##ding
brought
deficit
project
##ble
Conference
aircraft
chain
initial
servers
ANGELES
PCs
memory
result
thought
##ur
buying
fast
##ists
##ized
Fall
Merck
Thailand
boss
front
##it
important
Agency
Mets
internet
pace
finance
Singapore
goes
sharply
Angels
sanctions
sending
Abu
Against
Airbus
consecutive
debut
slightly
Ariel
kill
met
striker
Can
below
issued
settlement
##ous
##se
gain
scheduled
Last
application
Hamas
appeal
develop
guilty
sets
spot
Prix
states
Ivory
Novell
Stores
newspaper
concern
sector
##id
Arab
himself
hostile
While
longer
total
##ant
Sans
Vioxx
needed
question
ve
virus
features
host
send
sharing
threw
update
##at
##co
Saudi
crash
think
Securities
citing
needs
##up
Classic
afternoon
jump
makers
pass
problem
heavy
Martin
NL
Set
built
success
Cubs
developed
saw
##ve
Pakistani
broadband
candidate
moon
voters
666666
Serif
arial
credit
helvetica
these
verdana
figures
guard
negotiations
plant
struck
wide
Formula
OPEC
Republican
Southern
Star
caused
playoff
tonight
AL
Jobs
gives
spacecraft
Greek
camp
together
Dolphins
Labor
Arizona
care
enterprise
innings
talk
tools
tough
##os
Oakland
missile
pilots
processor
Fi
Government
Wi
rule
content
funds
worst
young
Cingular
##land
300
Man
my
previous
vs
##ize
##ns
joint
linked
planning
programs
revealed
Financial
sees
Federer
Pacific
reduce
island
operation
seeks
Nikkei
Peace
inflation
published
Musharraf
NYSE
Saddam
bombing
pulled
Cut
insurgents
shareholders
stand
training
uranium
backed
itself
moves
sports
64
shopping
49
Cleveland
Kansas
Nintendo
announce
controversial
decade
decades
##ll
appeared
launches
mark
south
weather
Gets
hurt
improve
introduced
ran
Northern
OS
north
seek
web
Life
TORONTO
ball
movie
operator
practice
toll
##ped
Earnings
banks
satellite
##field
##line
Chairman
Fla
Rangers
Fannie
About
protection
IPO
Kills
Tom
blow
poll
worries
##ds
Moscow
assault
calling
massive
parts
protest
questions
showing
strategy
Amazon
So
helping
lift
Radio
ll
things
touchdowns
Video
owner
producer
Energy
Market
spent
Justice
Plans
serious
Dallas
Prize
##ent
##ged
Get
Power
Vladimir
hour
Consumer
Expos
Health
Into
Iraqis
something
terms
##ner
Bryant
goals
lose
Kong
Verizon
passes
recovery
secure
targets
2000
Hong
Middle
arrived
damage
flu
ordered
passed
tool
Liverpool
expand
why
Free
Notre
Old
domestic
protect
room
Dame
Plan
conflict
different
seconds
surgery
##tion
Utah
files
remained
Ex
Roger
raising
Force
Motor
Tim
extended
session
Jason
easy
positive
probably
##ated
Microsystems
surprise
warns
##ance
GM
cutting
approval
replace
##ier
##son
Annan
Hewlett
Technologies
base
cricket
period
55
Bid
advertising
arms
broke
yen
Growth
believe
fiscal
moving
relief
Braves
civil
complete
film
##ard
Cuts
Georgia
Indonesian
Packard
Virgin
panel
yard
Colin
His
June
Lead
Samsung
lawsuits
minute
45
Dodgers
Sudanese
beginning
cause
paid
80
Are
discovered
hot
impact
red
##red
Bomb
Desktop
How
Jose
Of
Still
isn
trip
troubled
Greenspan
Hits
Loss
Western
facing
jail
Mozilla
SBC
Toshiba
Vote
knee
struggling
Coach
Sees
core
hoping
mortgage
worldwide
Car
Executive
bit
intelligence
tie
tour
wounding
Division
done
income
##ring
70
deadline
falling
parliament
##ally
##ide
##ny
College
Pittsburgh
download
image
mid
##f
English
Explorer
Gulf
Percent
Treasury
add
announcement
delayed
exploded
highs
output
venture
41
Just
Take
ad
agree
appears
critical
demands
poor
suffered
2002
Food
Industry
hands
marketing
##na
##ries
Hewitt
Mae
Manning
Rises
Smith
labor
voting
Price
finish
tried
wild
##ning
Another
cable
developing
us
2001
Board
college
deadly
murder
Case
finals
rain
suit
ties
##ma
##men
Motors
Posts
Premier
historic
resolution
##de
##ial
Express
Judge
Million
PARIS
Week
consider
message
telephone
benefits
progress
setting
standard
Colorado
auction
levels
Club
Five
flat
soldier
CA
Digital
##ating
##tic
##tor
TO
flights
handed
story
twice
Java
advanced
block
details
filing
pension
pitcher
platform
##ro
Baltimore
Oklahoma
Roddick
miles
numbers
MOSCOW
Bangladesh
NASCAR
Outlook
Tennessee
Tigers
allowed
inside
species
Diego
Near
assets
century
community
qualifying
Corporation
allegations
value
##ir
Lower
Most
Saturn
areas
lot
ministers
reportedly
themselves
traders
Networks
Sri
fastest
threats
##cy
48
Philippines
Trophy
budget
orders
victims
##v
Holdings
bombs
testing
tests
kills
screen
sixth
surge
King
criminal
purchase
seventh
##ley
Investors
Richard
becoming
champions
date
province
Atlantic
Could
Pacers
Station
exchange
opener
sharp
##ine
Anti
Nortel
Shiite
discuss
looked
##ke
##ned
Sen
driver
polls
really
summit
##ms
Falluja
armed
begins
Allawi
estimates
exports
##ri
Marsh
Ministry
agent
blue
instead
##ments
34
Cuba
Field
arrest
expansion
heating
jumped
ninth
offense
patent
watchdog
##ise
Leader
Syria
airport
antitrust
prepared
Associates
finished
grew
seems
sex
##w
Falls
Killed
class
crowd
often
tennis
Associated
Bears
Before
breaking
cars
headed
lines
owners
Charles
Hat
black
crucial
familiar
##ens
March
Martha
completed
defensive
hotel
previously
review
significant
##as
600
forecasts
score
students
Gates
Zimbabwe
crew
rich
upgrade
warming
##ics
Redskins
considering
display
missed
climate
currency
homer
hurricane
package
thing
weak
SPACE
awaited
declared
ends
live
non
tomorrow
Hamm
par
pull
records
successful
##ut
Committee
Donald
Lines
Second
Storm
Wales
check
delay
eastern
peer
treatment
upset
##V
3G
90
Beckham
SP2
customer
de
enrichment
format
strength
Kill
Martinez
Next
Pedro
Royal
closing
halt
manufacturing
spyware
Schilling
bought
created
matter
sport
Alan
Frances
ID
Indiana
Jeff
Seen
Titan
Twins
land
names
nothing
quickly
resume
schedule
traffic
ways
75
Militants
allows
witnesses
Cricket
Electronics
PGA
Six
emergency
expect
##un
Hamid
Nigerian
banking
common
decide
faster
include
options
pre
Cassini
Hit
Organization
Phone
democracy
edge
joined
stars
thanks
Barry
Chris
Nuclear
Start
disease
leads
pair
wrong
Ravens
USATODAY
adding
documents
electronic
interview
residents
Argentina
conditions
foot
retailers
sure
voted
Congo
Reports
Satellite
Source
Taliban
believed
bringing
cards
denied
Colts
Fund
MSFT
Phelps
cents
changed
computing
extend
sought
38
Andy
Attack
Golf
Hussein
Players
Today
direct
eyes
returns
cancer
candidates
deals
shut
##ual
Probe
Turkish
certain
eighth
industrial
person
science
##ad
BEIJING
Has
Long
Micro
Robert
age
blood
boosted
##ps
Steelers
Swiss
mixed
steps
watch
JERUSALEM
apparently
bird
carrying
goods
handheld
Chip
Citigroup
Lanka
Rally
pro
AG
Update1
mass
partnership
scores
Low
Newcastle
believes
crashed
info
majority
preparing
priority
regular
Aid
Kevin
Ticker
Wrap
bodies
model
smaller
terrorists
view
Alex
Euro
Prince
Scotland
approach
clash
coalition
turning
##ON
##ism
##om
##sh
Laden
Rooney
System
Vodafone
design
includes
involved
Administration
Motorola
Nobel
Takes
hole
managers
movies
request
resigned
retirement
upcoming
CNN
Cell
doctors
entered
pick
receiver
##ina
##per
Lewis
activity
gone
independent
son
speculation
train
Bigley
Carlos
Engine
Venezuela
allegedly
draft
eBay
entertainment
extra
eye
puts
wife
##W
Rebels
Ziff
activities
always
##dy
54
Auburn
Craig
Death
Lions
Player
Tampa
aims
owned
putting
rare
starts
Again
Go
Packers
hearing
improved
living
prisoners
promised
##back
##ta
##ters
Anaheim
Troops
Your
begun
capacity
surged
withdraw
Egyptian
School
USA
finding
mutual
regional
vehicle
withdrawal
CITY
Joe
Pay
admitted
scoring
32
Quarter
although
coast
me
unions
##ware
65
Halo
Pro
immediately
stroke
votes
##ks
33
Don
Make
Malaysia
Morgan
Republic
Sears
Third
abuse
option
spend
##ger
Kmart
shooting
style
voice
wait
##izing
##ler
Wenger
doing
freed
overtime
quit
ship
wasn
##ded
Say
Super
Under
advance
anticipated
broken
deep
grand
piracy
##me
Montreal
arm
pushed
reason
response
shuttle
vice
Cincinnati
Photo
placed
standards
strikes
via
Adobe
Hockey
Seven
Strike
defending
developer
machines
stronger
tight
##ue
51
Premiership
buys
cities
ease
hardware
threatening
##by
FCC
Hall
Play
crimes
deliver
era
golf
overnight
parties
renewed
speech
##ap
Attorney
Jan
Mr
NY
Sir
analyst
attention
grow
leaves
officers
remaining
seed
uk
veteran
word
Launch
Pistons
deaths
declined
effect
fine
jet
planet
remote
traditional
##da
##down
##rd
##ze
Lee
Sharapova
Target
accept
acquired
matches
pitch
Billion
Economic
Jewish
Jr
KABUL
Myanmar
VoIP
dual
Launches
OK
Shell
driven
situation
supercomputer
widely
##hip
Carter
Drop
Gary
Indianapolis
Milan
Miller
Seeks
embassy
finds
increasingly
opens
sides
wave
##ions
##sing
Jacques
People
adds
advantage
beyond
bus
disaster
magazine
separate
trouble
unbeaten
##der
##io
According
Blast
Kobe
Larry
MP3
investigating
05
Dead
Jackson
Pfizer
Tehran
claiming
disappointing
means
Edwards
Mount
Nets
Spitzer
Store
Thousands
books
camera
earthquake
heading
partner
white
800
Chart
Chechen
Symantec
bombings
enter
increasing
mine
suspects
unveils
words
Auto
Els
Help
Iranian
Kodak
book
directors
fear
laws
leadership
officially
plays
rallied
rather
website
##mer
##nd
Final
Management
Vietnam
Wayne
appeals
failure
prize
150
FDA
Have
Makes
Women
alliance
images
prevent
rookie
semi
similar
solid
vowed
47
Brian
Democrats
Jeanne
Soccer
Watch
Zarqawi
appear
dozens
keeping
reform
250
Agassi
Barcelona
backs
carry
doubt
telecommunications
##pe
42
53
700
Brazilian
Denver
Gordon
Lebanon
Vijay
attacked
compete
continuing
founder
increases
lives
nationwide
parent
preliminary
##ail
##off
Money
Terror
allowing
defence
jhtml
tiny
##ER
El
Mariners
PT
captured
choice
rebounds
stadium
sued
vehicles
worm
Half
Officials
coup
difficult
evening
feature
financeQuoteLookup
infotype
natural
qcat
qtype
sentenced
sym
west
##ES
##ee
Entertainment
Trial
act
edged
overall
shift
supporters
tackle
technologies
violent
##ish
BBC
Capital
Commerce
Walt
ex
providers
zone
##ible
Browns
Jordan
Young
bin
caught
copyright
driving
kind
launching
reporting
unless
##ow
Great
auto
prosecutors
restructuring
shock
Claims
Pervez
Strong
ability
comments
entire
holds
processors
seeded
songs
user
##bn
Halliburton
award
chances
database
defeated
expressed
keeps
seized
Arctic
Thai
die
dramatic
rises
stem
Kabul
Pack
Titans
agencies
extension
fees
lifted
patch
portable
unlikely
##cing
##gs
Beat
Chirac
IP
Season
child
emerged
failing
giants
picked
raises
towards
wake
Genesis
NCAA
brand
drove
index
jury
manufacturer
poised
rock
turns
##time
44
Forces
II
InfoWorld
Island
Plc
Spam
Thomas
comeback
creating
drives
eased
##ice
##ves
April
Economy
Forbes
Job
Scott
hurricanes
newly
onto
partners
passenger
streets
##ney
Challenge
Enterprise
Leads
SINGAPORE
confident
events
lineup
perfect
safe
solution
vendors
##ct
Colombia
Found
Frank
SpaceShipOne
Unit
announces
blasts
messages
planes
property
technical
traded
##IA
##ile
##ore
Leaders
Users
collapse
falls
governments
reaching
shipping
vendor
waiting
Advanced
La
Many
Ron
bomber
doubled
measures
worker
##ities
52
AU
Chile
Guard
Indians
Jays
Massachusetts
announcing
banned
considered
criticism
dominated
improving
inquiry
signing
##maker
##ming
Ahead
Hostage
Kyoto
Rockets
address
broadcast
heads
involving
messaging
quite
##ay
Tennis
Workers
account
alive
possibly
refused
soft
viruses
##ates
##ot
04
Heat
Offer
dangerous
refugee
self
soaring
##go
43
Good
HD
Kofi
Nepal
Toyota
UEFA
anniversary
delays
idea
lawyers
lows
seasons
units
Jersey
Qaida
Serena
catch
contracts
dozen
elected
explosives
hear
machine
plot
ranking
secret
securities
##ber
##king
Bobby
Columbia
Illinois
Libya
Plus
clashes
dismissed
fact
flying
holy
ice
lack
middle
ongoing
postseason
street
Airport
Henman
Journal
Science
Summary
civilians
either
fly
hitting
raid
recall
rescue
solar
status
Bob
County
Labour
Marlins
Typhoon
injuring
link
schools
tell
tries
Daily
Netherlands
Offers
communications
developers
lawyer
pushing
radical
slide
##AN
##ened
Jakarta
Move
Peter
Sunni
Won
convicted
faced
greater
insisted
instant
marathon
pact
patients
practices
relations
shots
squad
Alitalia
Caribbean
Site
Solaris
Treasuries
Va
friendly
green
opportunity
posts
Ali
Chiefs
Cowboys
DNA
beta
figure
franchise
hockey
legislation
steady
##day
##ised
##rate
Bell
Navy
Standard
additional
commission
everything
heat
moment
racing
sweep
torn
##ky
3Q
67
Busch
Delhi
Hollinger
Look
Maryland
Reds
Warns
bottom
heard
semiconductor
winds
##ization
Early
Even
Tax
broker
dream
managed
notebook
works
Mauresmo
SYDNEY
atomic
committee
corruption
leg
struggle
taxes
Arabia
Fields
Firm
Ken
Official
cool
prove
subscribers
Call
Charges
Hassan
USC
flash
receive
46
66
Coca
Devices
Longhorn
Muslims
WTO
construction
fellow
flaw
gained
##cks
BRUSSELS
Edition
MacCentral
Poll
Show
highly
models
networking
seat
tied
##ence
37
Human
Knicks
Vikings
born
introduce
releases
resolve
watched
Battle
Chavez
Flight
Jim
NEC
cover
fighters
housing
joining
paying
promises
provided
seemed
spread
Austria
Celtic
Cheney
Forest
predicted
resignation
steel
stopped
##board
Basketball
Deutsche
Glazer
Raptors
Than
airlines
appointed
arthritis
beats
benefit
bigger
climbed
happy
identity
organization
passengers
pledged
sells
##one
##tive
##uring
Clemens
Electronic
Matt
McLennan
alert
carried
expanding
feel
fought
headquarters
injuries
offset
playoffs
stepped
##all
##im
Antonio
Calls
Cola
Ferguson
Here
Miss
Public
Researchers
SAP
Siemens
apparent
breaks
connection
doping
pitched
prepare
produce
serve
suspension
##ford
##ka
##ration
Athletics
DoCoMo
Foods
Key
br
knew
potentially
produced
ring
slipped
throughout
##ability
##ify
##tes
DC
ESPN
Flat
Head
Mass
Raises
Stern
father
militia
opponents
HOUSTON
Kazaa
Law
Past
Sweden
Work
described
fix
kick
lawmakers
semifinals
##ched
Companies
Israelis
Orleans
accounts
anything
cleared
journalists
profile
##and
Charley
Fight
Insurance
Update2
ankle
backing
challenges
landmark
##ld
##ron
78
Ballmer
Bills
Do
File
Gov
Harry
Pentagon
ST
Their
Xbox
aside
cold
cross
largely
multi
offices
projects
suffering
suggests
van
##over
##ress
##zed
BOSTON
Embassy
Gartner
Jack
Osama
Rules
Ten
Who
cannot
ceremony
competitive
delivered
larger
medals
presence
read
showdown
##IN
##ans
##bly
##mo
85
Best
Close
Kim
Moon
Mosul
Netscape
OTTAWA
PlayStation
daily
girl
picture
pleaded
reduced
weaker
wind
##ING
##ak
##ations
Ask
Attacks
Gas
Manmohan
Motion
Retail
Sydney
Unveils
centre
critics
insurgent
inventories
mean
pain
rejects
strategic
surface
##ire
##ul
##ving
Hamilton
Theft
holes
qualifier
quality
reforms
seem
successor
writes
DS
Staff
ads
agents
cases
easier
responsible
suspect
visiting
##ade
##ets
CRM
Henry
Philips
Sea
Way
anyone
assistant
box
closely
kidnappers
lowest
##med
2007
99
BlackBerry
F1
Face
Helens
Race
Victory
Violence
bids
causing
condition
deputy
everyone
feared
joins
links
meter
possibility
##als
##ell
##ham
##her
##ied
Abbey
Amid
Andre
Fire
IMF
Lycos
Schumacher
aren
ask
cameras
capable
diplomats
earned
email
friends
illegally
quick
split
suggested
##ki
2008
Clinton
Demand
Harmony
Keep
Rumsfeld
Seahawks
Sign
agrees
blamed
couldn
distribution
entry
graphics
heavyweight
hunt
manufacturers
providing
serving
spammers
talking
##wood
86
Chase
Credit
DELHI
Edge
Forecast
Guinea
amount
answer
combat
expanded
helicopter
infrastructure
language
overseas
smart
successfully
urges
##vin
62
Anthony
Briton
Eisner
RFID
Shi
Since
Sirius
Universal
am
brother
east
fined
page
perhaps
returning
sound
table
##ering
ATA
Convention
Itanium
Maria
Orlando
Semiconductor
Title
commissioner
controlled
couple
demanding
distance
emerging
focused
follow
ousted
rolled
siege
versions
worlds
##ening
Although
GAZA
Honda
Kremlin
Lakers
Military
Nearly
Parliament
Philippine
Thatcher
Years
attorney
estimated
fate
hike
love
positions
reasons
recording
roll
secretary
spring
Davenport
Fans
IN
Jean
Raiders
Signs
Wants
Wizards
astronauts
bitter
department
drivers
ensure
helps
mind
subsidiary
targeting
titles
##Z
Act
Electric
Finance
Fox
Justin
Owen
Stephen
dies
euros
jailed
outsourcing
plants
scale
sea
watching
##ons
Gains
Garcia
Margaret
Ready
Spurs
Supply
Vs
famous
hired
powers
programme
silver
targeted
territory
Cabinet
Celtics
Neal
Protocol
SPORTS
Telecom
Why
cast
downloads
fan
favorite
referendum
walk
##tors
10th
Ben
Curt
Institute
Republicans
SA
capsule
client
formally
lay
limited
lockout
roundup
stands
struggled
touch
warnings
##VILLE
##ls
##ray
88
CBC
Cavaliers
Championships
Chechnya
Ends
compared
followed
iMac
infringement
meetings
monthly
mosque
ray
truck
##gen
##ical
##ud
69
Broncos
Eastern
Jazeera
Peru
Return
SEATTLE
Urges
accepted
brawl
broad
currently
effective
gear
mostly
pole
##ric
##va
Connecticut
District
Zone
accusing
boy
cabinet
crime
offerings
operators
producing
shareholder
supplier
worried
##bs
##ties
Blu
Hopes
Hundreds
IE
ISLAMABAD
Panel
Swedish
Vegas
asks
busy
earn
engineers
environment
gunmen
invasion
membership
multiple
paper
rout
shoulder
##00
##my
##ory
##res
##ville
##well
84
BCS
Marines
Release
SEOUL
Safin
Trafford
UNITED
attempts
band
controversy
factory
politics
sized
transfer
updates
##ain
##ple
BT
Democrat
Foundation
Little
Southeast
capture
competitors
experience
included
landing
parents
preseason
professional
rushed
sentiment
vaccine
##TON
##ute
##za
Andrew
approve
door
employee
financing
hackers
ite
measure
photo
privately
scientific
sentence
string
tells
unprecedented
##SE
##ff
##la
##ved
Abbas
Like
Line
PalmOne
Pct
Pentium
Radcliffe
Shanghai
Valley
Vice
allies
convoy
equity
individual
king
reserve
shipments
##ings
160
ATLANTA
Allen
EMC
Jaguar
Memphis
Suicide
blame
commander
cooperation
especially
felt
internal
invest
optimistic
prospects
protests
provides
studios
whole
##op
Campaign
Meet
Rebel
Use
bronze
disk
firing
greatest
knows
orbit
payments
producers
promise
setback
shrine
##mon
##tle
Alliance
Expected
Faces
Holiday
Insurgents
Napster
ONLINE
Ryan
Sell
Sets
VIENNA
accident
carriers
effects
governor
immediate
##ious
##ories
##port
56
Adrian
Czech
Everton
Gateway
Mail
Revenue
aboard
capabilities
coaching
pounds
separatist
switch
uses
##ars
##ill
##ol
Hills
LCD
Tops
awarded
boosting
brings
embattled
lets
manage
meters
revenues
shown
sweeping
university
Lehman
Pilots
Rams
Snow
Support
delivery
drops
education
freeze
gathered
initiative
marked
meets
patents
religious
subject
##ast
##uck
Chargers
Cos
Eight
Lleyton
Phillies
Review
U2
boom
cap
committed
denies
penalty
population
pound
regulatory
retire
sluggish
wickets
##act
##cent
##house
Development
February
McDonald
Rays
Sven
appearance
determine
families
homered
photos
reality
responsibility
shoppers
song
threatens
##ins
63
Consumers
Iowa
Racing
Small
Thanksgiving
Veritas
brain
brokerage
copies
estate
facility
fair
flagship
hasn
publisher
true
##ack
##cle
##ox
##ures
Also
Beslan
Depot
Fighting
Hurricanes
Kenya
Officer
aim
alternative
blew
clothing
desert
dividend
gasoline
lowered
pipeline
policies
reporters
stronghold
##ick
3rd
Boost
Buffalo
Kenneth
Ray
Rose
Shows
Social
Winter
crackdown
disputed
feet
payment
relationship
retired
standing
ticket
utility
##GB
##Q
##ba
##den
##ified
89
AC
Berlin
IDC
Medical
Milosevic
Murdoch
Pinochet
TiVo
Wisconsin
floods
scientist
sense
sparked
welcomed
2nd
Buys
Golden
Least
Phoenix
RealNetworks
Results
River
Survey
ancient
concerned
console
expert
funding
gaming
handset
handsets
restore
slowing
stations
tape
unexpected
widespread
##AL
##NA
Diamondbacks
Juventus
LSU
Orioles
imposed
slowdown
willing
##ball
92
Andreas
Briefly
Broadband
Eriksson
NEWS
Norway
Phil
Safety
Storage
female
imports
influence
pictures
races
settled
simple
ten
unemployment
worked
##ach
##head
146
Dick
Ferrari
Mississippi
barely
clean
compensation
environmental
existing
fierce
fit
loses
opponent
passing
plea
teammates
##oe
95
Dan
Future
Latest
Panthers
Suit
backup
convention
dominant
inch
licensing
momentum
neck
organizations
overhaul
searching
strained
suspend
virtual
##RA
##ered
1999
68
Ban
Cards
Chad
Eli
Find
GOP
Lenovo
Several
She
battered
bell
crown
engines
letter
sue
theft
trials
triumph
##ng
Authority
Contract
Gives
Hughes
Lebanese
ally
bills
complex
easily
favor
gap
grid
humans
license
limit
plenty
proved
risks
##ca
##que
2012
Guantanamo
Hold
NATO
ORCL
Seek
crowded
explosions
sky
tentative
thin
unexpectedly
write
##J
##RE
##hing
12th
Gunmen
Netflix
PSFT
Palace
Palm
Program
Right
Switzerland
battles
bound
civilian
count
piece
places
slowed
victories
##to
##zing
EDS
ICC
Las
Men
Patrick
Poland
Ricky
Sean
Short
demanded
extending
fixed
hiring
justice
movement
powered
regulator
trend
##ah
##ants
##ga
Beats
Khan
Month
Munich
Project
Qantas
bankrupt
becomes
clients
coaches
hoped
knocked
learned
loans
processing
quest
remove
revised
soared
unveil
##ale
##ats
##ever
Fenway
Funds
Orders
Owens
Scottish
aiming
contest
fully
granted
identified
merge
ministry
prepares
promote
reaches
simply
storms
tested
##ean
##nes
##work
Arsene
Equatorial
FA
Indies
NTT
Only
Soldiers
Trump
Well
agenda
aggressive
arrives
billions
consortium
creation
font
maintain
mother
pitching
promising
scene
sexual
##aging
##cal
##ite
Change
Comcast
Devil
Hubble
Mayor
Merrill
Names
OKs
Pennsylvania
Pirates
Spyware
bloody
calm
citizens
definition
detained
formal
postponed
vast
vows
##au
##ward
77
Blockbuster
Control
JAKARTA
Match
Monetary
Orange
Rice
Vivendi
alone
coal
commitment
defended
discovery
doubts
fails
peacekeepers
present
worse
##SA
##eer
##lines
##ncy
##pt
AM
Announces
Aziz
Branson
DaimlerChrysler
Give
Investment
MVP
Quarterly
Rates
Taylor
Threat
Trojan
defend
else
luxury
original
phishing
rocked
someone
sues
thrown
victim
wider
##ok
##room
Cambodia
Conway
Goes
IM
Kennedy
Lynch
Manager
NATIONS
Northwest
Padres
Run
Speed
TechWeb
athletes
cells
combined
curb
destruction
eve
heavily
journalist
reserves
rounds
surprising
welcome
##EN
##ians
##ix
##rated
##ult
96
Bengals
Eliot
Eyes
Finland
G5
Harvard
Hurt
Milwaukee
Mutu
Opposition
Ovitz
assassination
audio
climb
exactly
fires
older
prompting
rebound
recorded
replacement
ride
seriously
struggles
thinking
throwing
weight
worry
##DA
##ST
Following
Index
Langer
Square
Treo
abducted
clinch
communist
envoy
exit
gun
material
mining
recover
regime
rushing
tap
wage
##han
##its
Belgium
Bln
Circuit
Debate
Holds
INTC
Opens
PHILADELPHIA
Stake
asking
beaten
celebrate
discount
governing
intended
investigators
loan
reading
signal
succeed
temporary
##tch
##ver
Chrysler
Files
Finds
Fuel
Marion
Mixed
Ortiz
Partners
Profits
Push
Roma
SiliconValley
deadliest
disc
district
impose
ones
refugees
stormed
student
trust
upbeat
##ery
##gy
##ship
BA
Cash
Charlotte
Costs
Hostages
Hugo
Mich
PayPal
TD
Yankee
conduct
materials
midfielder
resources
surrounding
typhoon
##RS
##row
##town
##ust
49ers
Berlusconi
Both
Cuban
FOR
Hill
Rate
William
actually
apart
commerce
determined
expensive
flaws
priced
prompted
representing
stood
telling
trapped
waters
##AR
##ching
##dle
##ip
##ome
##rus
##ub
GE
Gene
Ichiro
PLC
Poor
Randy
Tests
WTA
baseman
easing
export
kicked
lifts
proposals
ranks
rolling
shake
##ett
##jan
##makers
Banks
Chips
Fish
Local
Markets
Merger
Musab
Phones
Portable
Q3
Rwanda
ballot
conspiracy
criticized
destroyed
enforcement
factories
filled
gaining
map
marking
meant
pretty
pullout
quietly
rape
stalled
strengthen
subsidies
supposed
survived
winners
##bo
##ifies
##und
57
71
ABC
Artest
Elections
Falcons
Governor
Guidant
Machines
Nuggets
Pope
Rejects
Rising
Rockies
Trading
Venus
Voters
Worries
ballots
connections
diplomatic
healthy
hopeful
jobless
recovered
regarding
replaced
resistance
reveal
slip
##no
##rating
##ull
Agrees
Cable
Dies
Ernie
Jamaica
Late
Links
MGM
Mary
Protection
Share
Steel
Yanks
competing
deployment
dropping
expands
horse
humanitarian
improvement
insurgency
modern
modest
newratings
plus
prosecutor
sun
swept
telecom
tops
tsunami
witness
##bed
##ison
##unt
##ys
11th
94
Experts
FBI
Ghraib
Louisiana
Mourinho
Sues
Syracuse
aide
cautious
confirms
genocide
learn
lived
pilot
relatives
starter
task
threaten
volume
##ya
1st
Anwar
Crew
GOOG
Nick
Reach
Robinson
WMT
Walker
conducted
danger
forcing
insurers
landed
linebacker
pm
pushes
remember
repair
severe
shook
stretch
##LE
##tz
72
Adam
Christian
Family
Fraud
Mission
Pyongyang
Yen
brief
dark
directly
disclosed
insurer
optimism
pricing
treat
visits
wing
##air
##ino
##ition
##nts
61
Belgian
Bombs
Chen
Favre
MADRID
Marathon
Moves
Sale
Santander
YUKOS
affect
birds
counter
counting
em
happened
hotels
investigate
miners
newspapers
pop
rental
trick
versus
##aps
##rain
##tation
Adds
Bayern
Changes
Commissioner
Crash
During
Giant
Jerusalem
Louisville
NZ
OF
PSP
Polish
Senior
Speedway
buyers
buyout
changing
checks
employment
exporters
extends
saving
supporting
##bility
##hy
##ni
##ren
##ug
##ying
650
CD
Carl
Firms
Grizzlies
Helps
Hu
Syrian
Virus
Volkswagen
atop
boosts
channel
concessions
coverage
deploy
devastating
doubles
edition
emissions
eventually
gymnastics
hailed
hunting
ill
laid
lunar
native
portfolio
protesters
quarters
route
text
visitors
wine
##ative
##com
##ko
Award
Backs
Begins
Fears
Lowe
Mexican
P2P
QB
Roy
Said
Soyuz
Toll
availability
balance
buildings
crack
defender
direction
fail
fashion
fish
foreigners
grabbed
limits
minority
mortar
parliamentary
phase
prospect
spokeswoman
violations
##ably
##are
##aw
##do
##ges
##ulate
##use
82
Aristide
BERLIN
Cost
Let
MCI
Magic
Mln
Mortgage
Qwest
Smart
Stop
Talk
Through
activists
ambitions
brands
challenger
engineer
ethnic
impressive
negative
outfielder
quarterfinals
rating
removed
robust
singles
suggesting
walked
warn
weekly
withdrew
##ED
##ees
##lation
Access
Brewers
Drops
Flu
Freddie
GDP
Hard
Infineon
Information
Injured
Malaysian
Mitsubishi
Montgomerie
Ocean
SCO
Souness
TEHRAN
Terry
Tommy
Zook
ailing
boycott
fewer
hamstring
haven
locked
monitor
plunged
pollution
prominent
seeing
submarine
views
woes
##ab
##ction
##rt
##ugh
Description
Eye
Gain
Holmes
Marine
Night
automaker
beheaded
emerge
exhibition
involvement
mystery
outcome
packed
particularly
poverty
preview
seats
settlements
significantly
stakes
stunning
swing
urging
village
##burg
##our
##ture
74
81
Aaron
Alaska
Cal
Cross
Dr
EBay
IDG
Liberty
Malcolm
Rights
Straw
TVs
Travel
Venezuelan
Viacom
angry
atmosphere
economists
hire
indicated
laptop
malicious
newest
quoted
reject
tourists
##GE
##hes
##ification
##sed
##val
76
79
900
Advance
Beach
Blackburn
Daniel
De
Earnhardt
Heart
Homeland
Hornets
Inter
Jonathan
Limited
Making
Purdue
Ramirez
Salvation
Ukrainian
Voting
addition
arrests
astronomers
bolster
casino
concluded
finishing
hander
overcome
pounded
ravaged
receiving
resign
reveals
teammate
##ives
Alabama
Focus
IAEA
Instruments
NAJAF
Once
See
Sender
Shawn
Silicon
Stanley
Using
Wake
Water
acknowledged
advances
breakthrough
cheaper
eliminate
erupted
explain
listed
managing
pool
questioned
ranging
rapidly
scare
stayed
stripped
tickets
triggered
##TS
##ash
##late
##lo
##sion
##wing
Alexander
Atomic
Ian
Likely
Rafael
Resources
Romania
Spending
Suspected
Suzuki
Tottenham
Without
asset
bidding
completing
damaged
eclipse
freedom
picks
politicians
premier
quiet
raids
relatively
slam
solutions
teenager
workforce
Bull
COMPUTERWORLD
Islands
Latin
Ontario
Pitcairn
Rodriguez
Symbian
Targets
Unix
Valencia
Want
abroad
art
copy
elite
engineering
flood
formed
gathering
incident
jointly
longest
lure
##RY
##ja
##mark
##mp
##uts
BHP
Barrel
Chapter
Check
Investor
Looking
Nine
Preview
Product
Puts
Qualcomm
Roman
Samarra
Was
admits
baby
buried
captors
clinched
integration
intense
minor
occupied
replacing
resort
retain
shape
social
standings
surging
swapping
unusual
various
weakness
##ess
##ha
##pers
##point
##ral
##ster
1990s
BC
Bruce
Card
Catholic
Channel
Debt
Forum
Jobless
Part
Penn
Piracy
Road
Royals
Seoul
championships
choose
evolution
flew
happen
march
path
pharmaceutical
rapid
relay
resigns
rivalry
spy
tens
trees
type
vision
##ches
##list
##lock
##ock
##ular
58
Camp
Industries
Iyad
KONG
Kings
Kuwait
Legal
McAfee
Plane
Sorenstam
Yet
Yudhoyono
adopted
analysis
appealed
cease
celebrated
certainly
conservative
controls
electricity
feeling
fueled
hat
indicted
interests
medium
mph
necessary
normal
publicly
pulling
revive
shortage
slump
steroids
suite
super
uncertainty
updated
##izes
##ten
93
Anderson
Birmingham
Blasts
Brett
Eric
Ericsson
HONG
Hawks
Madison
Maoist
Personal
Renault
Retailers
Tropical
berth
blade
bond
condemned
entering
fixing
insists
permission
ripped
settlers
shop
stolen
studio
sustained
usual
##orn
##sa
ATP
Agree
Among
DVDs
Defeat
Hitachi
Jay
Klitschko
Lawyers
Peyton
Presidential
Sep
Siebel
Troy
XM
authority
barrels
bases
birth
boxing
charging
fallen
improper
planets
require
roster
slower
sponsored
surprised
upon
worms
##ID
##ages
##ces
##hold
##ility
##li
##light
##oo
##ris
Belarus
Breeders
Code
Khartoum
Moss
NC
Picture
Van
Wild
animals
assists
bar
chase
collapsed
complaint
contractor
defends
enters
exclusive
expenses
farmers
flag
handle
inaugural
inventory
jets
marks
missiles
peak
posting
rush
signals
sometimes
suddenly
suggest
unable
weighed
##fer
##ited
##tering
##tt
##ven
##ws
18th
Arena
Clippers
Fischer
Holding
Interest
JOSE
MLB
Meyer
Missile
Panama
Slam
Spurrier
Stanford
Then
Too
agreeing
beef
chaos
divided
earthquakes
electoral
finale
husband
milestone
pledges
privacy
recalled
releasing
reputation
supported
tycoon
waves
wicket
##ots
Ad
Bali
Brussels
Children
Defence
Fresh
Goran
Islamabad
Jacksonville
Juan
Kreme
Manufacturing
Missing
Movie
PA
PalmSource
Private
Rossi
Saints
ambassador
anger
arrive
audience
batteries
billionaire
cellular
closest
facilities
fill
floor
friend
lifting
manned
observers
pages
permanent
prescription
pursue
settles
spin
suffer
swap
tensions
vulnerable
##ake
##cs
##ique
##og
##rin
BAR
FT
Fool
Graeme
Kidnappers
Krispy
Looks
My
Rock
Rovers
Starbucks
Tendulkar
Venture
Wimbledon
attend
chosen
dominate
gift
guns
hero
lying
mile
monitoring
negotiating
note
notice
pulls
rankings
sight
slash
spotlight
vulnerabilities
##lies
##non
##sts
##uing
120
Brad
Conrad
Debut
Director
Issues
LOUIS
Led
Mickelson
Must
NFC
Rookie
SERVICE
Soviet
Special
Taking
Telescope
actions
clearing
fun
guy
houses
hundred
judges
mountain
penalties
retreat
survivors
unrest
wouldn
##berg
##uch
##ude
Amelie
Approves
Assembly
Bad
Bernie
Bird
Bloomberg
Bluetooth
Dave
FedEx
Hospital
Hot
JPEG
List
Live
Parmalat
Pension
Shot
Timberwolves
Trail
advice
battling
bench
centers
drew
escape
established
fines
hosts
items
pays
required
sensitive
slashed
slid
virtually
vital
warplanes
written
##ath
##lon
##pel
##place
ACC
Aims
Analysis
Bankruptcy
Cancer
Charge
Delaware
Derek
Drew
Drugs
Islamist
Jeeves
Kurt
Lindsay
Mavericks
Paula
Place
Political
SEPTEMBER
Summer
Viktor
basis
blocked
cheap
doubleclick
enable
however
pursuit
standoff
treaty
verge
violating
writer
##CE
##EL
##des
##end
##long
##py
##ried
##ston
##tory
##uce
##ung
59
Climate
Damascus
Drive
Goldman
Hotel
Jamal
Leading
Leaves
Nation
Norwegian
Releases
Update3
Wright
canceled
clock
clues
custody
dealers
delegation
elsewhere
lab
predict
professionals
robot
slowly
suspicion
tender
throw
unique
volatile
##ft
##fully
##ink
##itive
##side
##tte
##uded
Above
Europeans
Federation
Gunners
Harrington
IRA
Jeremy
Opteron
Pact
RIM
Returns
Rick
Risk
Thomson
Vonage
Warning
ambitious
approves
article
earth
endangered
killer
maybe
prior
regions
tanks
thinks
##ang
##cies
##lip
##phone
##rry
87
AS
Aviation
Button
Charlie
Cooper
Danny
Jaguars
Lake
McNair
Mercury
Progress
Serie
Settle
Shaukat
Soon
Telstra
Wells
acquiring
arrival
battled
bloc
bridge
contact
dawn
departure
domain
dominance
employers
films
flow
girls
hip
lucrative
overcame
ownership
patches
proof
ratings
representatives
resumed
revenge
semifinal
sit
supermarket
telephony
upgrades
uprising
vulnerability
wearing
##ium
##umor
Afghans
Bangalore
Bolton
Bombardier
Bulls
Gators
Haitian
Intelligence
Interior
LLC
Less
Maine
Manhattan
Notebook
ON
Rain
Ruling
Schwab
Serb
Skype
assembly
association
basic
blocks
bowl
diplomat
document
drama
drawn
integrated
intellectual
junk
kids
northeast
pioneer
savings
steam
ups
##SS
##away
##ew
##iled
##nte
##ose
##vy
AMSTERDAM
Browser
CIA
Castro
JP
Jon
Koizumi
Lucent
MIAMI
NBC
Omar
Or
Pennington
Sharing
Shuttle
Slip
Track
absence
attract
blockbuster
boys
disappointed
favourite
guerrillas
independence
mails
marriage
massacre
mistakes
negotiators
rigging
scheme
sights
spoke
stuff
telecoms
tobacco
tribunal
trucks
understand
usually
wall
##ator
##ites
##ked
##ses
##thing
Action
Airline
Around
Building
Coke
Colombian
DETROIT
DreamWorks
Extends
FIFA
Fame
Guilty
Keefe
Light
Mideast
Millions
Missouri
Moqtada
NJ
Peterson
Questions
Resigns
Round
Unions
Vince
accord
agreements
batting
carries
compound
dialogue
disruptions
embargo
experimental
exporter
gamers
greenhouse
percentage
reduction
runner
sends
silicon
televisions
temporarily
withdrawn
##Point
##aked
##bar
##bing
##gers
##ncing
1996
350
97
Analysts
Appeal
Arms
Better
Bridge
Colgate
Does
ERP
Gazprom
However
Industrial
Instead
Issue
Leave
Muqtada
Rocket
Santa
Southwest
Stars
Suns
active
adopt
antivirus
battery
celebration
clinical
congressional
damages
dealt
grenade
install
interested
library
loyal
mysterious
pledge
popularity
reducing
shadow
shoot
sitting
slammed
specific
stable
trail
##agging
##ald
##box
##gle
##ils
##lt
##mit
##outs
##uted
Ads
FM
Groups
IOC
Oregon
Paper
Portland
Rogers
Rupert
Tool
Town
Turns
Version
Where
Willingham
abandoned
confirm
devastated
effectively
electrical
encounter
establish
estimate
filmmaker
grip
hikes
intends
mad
magnitude
matchup
mini
moderate
operate
publishing
skipper
suing
throws
tree
wars
wire
##dled
##een
##ises
##tone
##urs
Angel
Argentine
Behind
Campbell
Chancellor
Crisis
Delays
Dozens
ETA
Ganguly
Gibbs
Ibrahim
Jerry
LPGA
Lyon
Porto
Pressure
Put
RIAA
ROME
RSS
Revolution
Ruud
Rwandan
Sanctions
Schwarzenegger
Vows
Weak
Yushchenko
abandon
bright
complaints
completely
conglomerate
costly
counterpart
draws
fossil
guide
imminent
kidnapping
mistake
port
quake
sort
striking
strongest
tougher
unknown
##IC
##KE
##TO
##be
##ifying
##ising
##lain
##pin
##rant
##ulated
101
BEA
Begin
Cyber
Eddie
Fast
Hungary
Jump
Kuznetsova
Meeting
Shaquille
Sharp
Shopping
Southampton
Steven
Tough
Turn
Votes
Xinhua
Yao
alleging
cartel
clubs
cornerback
declines
escaped
golden
installed
owns
persuade
physical
rebounded
recovering
slight
theory
treated
##ME
##ari
##eek
##hi
##law
##sters
Almost
Barrichello
Bayer
Corporate
Harris
Islam
Keeps
LA
Northeast
OCTOBER
Portsmouth
Products
Sam
Settlement
Sheffield
Stem
Sutton
These
Toys
athletic
cargo
challenging
circuit
competitor
corner
dealing
dubbed
narrow
nearby
plagued
presented
reliever
salary
shutout
snap
spectacular
stepping
supports
##bury
##fy
##gh
##llo
##mise
##oke
##ov
##race
##rive
##tered
Blog
Decision
Del
Ecclestone
Gap
Gerrard
Giambi
Petroleum
Possible
Rome
Virtual
accusations
aides
chemical
colleagues
column
detainees
detonated
dust
duty
exec
exercise
guidance
libraries
longtime
moments
offshore
pack
registered
rolls
rugby
selected
served
spots
swimming
unchanged
##inated
##mos
##wer
00
130
AAPL
AIDS
AIG
Benitez
Burma
Celebrex
Coming
Fred
Fujitsu
HK
Hope
Ill
Johnny
Land
Latham
LeBron
Love
Nike
Queen
Relief
Rivals
Sacramento
Shrine
UAL
Wired
astronaut
beer
beleaguered
calendar
casualties
counted
differences
discussions
distributor
drink
featuring
grab
legend
opinion
regulations
repeat
rockets
sacked
sweet
tracking
tracks
twin
##atic
##fall
##ished
##star
Australians
Eastman
Kidnapped
Kraft
Lockheed
Sinai
Worldwide
bat
capped
closes
crashes
example
freshman
glory
holidays
identify
lock
mode
northeastern
presidency
shared
ships
strongly
##CK
##MC
##NS
##world
83
Alcoa
Austin
Basque
Casey
Cendant
Clarke
Country
Crawford
Expands
Hoping
Jet
Join
Kazakhstan
Kenyan
Kyle
Luis
MONTREAL
Mbeki
Memory
Policy
Save
Suisse
Susilo
View
Weigh
ace
answers
blog
bonds
briefly
chipmaker
cloning
courts
editor
error
feels
hunger
individuals
originally
profitable
raw
stages
stops
strain
survival
topped
wildlife
##BA
##ason
##hood
##iles
##key
##ph
##rates
##tal
##ula
##ured
##weight
Aussies
Buccaneers
Climb
Continental
Delay
Garden
Grace
Manny
Opportunity
Prison
Problems
Production
Rival
Sells
Should
Studios
Sue
Warming
acquisitions
advocates
affected
asylum
camps
caution
compromise
craft
cycling
demonstrated
desktops
desperate
drawing
fee
fled
flooding
grows
importance
labels
opposed
scam
square
statements
tore
triple
tumbled
whom
##50
##can
##ik
##lar
##ros
##ury
Agreement
Blazers
CFO
Dean
Elena
Ellison
Every
Hampshire
Keith
Lord
Loses
Md
Mills
Nistelrooy
PDA
Pak
Pleads
Point
Russians
Starts
Stay
Tel
Terrorism
Threatens
Tyler
adapters
disarm
grade
identification
quits
roads
strokes
tying
violated
wonder
##TA
##burn
##em
##eon
##iation
##ient
##ows
##ran
##ulation
##vers
##vision
98
Asks
AstraZeneca
Champion
Chilean
Competition
GP
Gen
Heisman
Moore
Nuke
Patent
Reaches
Sites
Slow
Straight
WNBA
abuses
activist
classic
combination
crunch
delivers
disappointment
doctor
drinks
elect
fake
funeral
handling
homers
incumbent
multimedia
negotiate
pending
platforms
policemen
punch
reaction
republic
richest
sat
secured
shed
troop
turmoil
uncertain
##DS
##cts
##eers
##hill
##hore
##mate
##nding
##read
##urt
13th
ASEAN
BLOOMFIELD
Beltran
Bobcats
Course
Double
Franklin
Jazz
Lawmakers
Lawsuit
Militant
Silverstone
Weather
aerospace
attendants
awards
blockade
bombed
campus
ceasefire
cocaine
comfortable
components
detailed
forms
halted
hitter
interesting
lands
plotting
pressed
protecting
screens
toy
whales
wreckage
##65
##ag
##cked
##ington
##mail
##mes
148
225
Appeals
Arrested
Below
Collins
Concerns
Flash
Fulham
Getting
Going
Increase
Lose
Mahmoud
Marat
Middlesbrough
Nvidia
Our
Rivera
Running
Would
accuses
aviation
blasted
businessman
cloud
command
council
declining
deeper
factor
programming
slugger
solve
subscription
videotape
##aking
##bie
##dge
##he
##heat
##media
##pot
##sure
##ther
##ti
20th
91
Aussie
Ayad
Bambang
CAIRO
Clijsters
Cold
Cyprus
DAL
Deputy
Duke
Film
Fires
Heads
Honeywell
Injury
Kentucky
Labs
Luke
Maker
Museum
Nears
Other
Philip
Pierce
Rolls
Santana
Silvio
Slips
Those
Wilson
adults
church
conviction
culture
follows
gambling
gay
infected
investments
kicks
knockout
pieces
praise
prisoner
sank
shortly
staged
studies
sudden
visited
##RI
##ara
##ave
##rick
##rie
##tain
##vation
##water
01
102
Animation
Aviv
Awards
Boy
Brands
FTC
Jimenez
Kathmandu
Maybe
NT
Representatives
Rover
Sainsbury
Sky
Summit
Surge
Telekom
Tribune
bankers
bears
branch
campaigns
component
cow
cycle
deciding
defeating
distributed
dot
gather
hedge
helicopters
inspired
locker
mayor
monitors
nightmare
spreading
sprinters
survive
talent
transport
underway
valued
warm
##UR
##abs
##ault
##els
##gue
##hin
##icle
##lan
##lash
##mons
##nel
##ntly
##ria
##ss
##tar
##zer
06
750
76ers
Armed
Boosts
Brady
Centrino
Decline
Govt
Greg
Hotels
Huskies
Kenteris
MMC
Moya
Planet
Scientific
Soldier
Strikes
Toward
Vogts
Voice
Yesterday
Zurich
coffee
deficits
economies
errors
fighter
guerrilla
occurred
oriented
p2pnet
plead
pleads
primary
purchased
questionable
remarks
shipped
shortstop
stability
stays
##20
##AS
##IS
##acy
##ature
##ax
##cher
##ek
##sky
##ui
##unk
##vor
##win
##yer
106
1998
802
Accounting
Armstrong
Average
Bertrand
Breaks
Clear
Continues
Customers
DE
Dream
Emirates
Gmail
Jeffrey
Maurice
Medal
Messenger
Offensive
Ralph
Ratings
Roebuck
Senator
Tamil
Ties
Trojans
Us
Wash
attempted
benchmark
birthday
boxes
brink
broader
containing
downloading
drought
execution
fights
genetic
impossible
landslides
margin
metres
mice
refusing
sidelined
speak
sworn
textile
thousand
towns
travelers
urgent
##URG
##bit
##eys
##force
##ker
##rich
##rit
##state
##une
2009
AA
Adams
Arroyo
BMW
Blunkett
Boxing
Brothers
CDs
Dubai
EADS
Editor
Grid
Hackers
ISS
Left
Megawati
Organisation
Prosecutors
Romanian
Though
Try
Wrigley
adviser
banning
booming
buyer
chose
connected
daughter
democratic
en
explosive
incentives
integrate
mate
medicine
patient
petroleum
portal
racist
regain
researcher
rovers
selection
spark
steroid
tons
tragedy
variety
writing
##ET
##ight
##ini
##power
##rust
##take
##unction
##uous
##utes
135
2010
Area
Billiton
Bin
Budget
Charged
Confidence
Hopkins
Mylan
Plant
Secret
Terrell
Warriors
achieve
arguments
author
bounce
brokers
bullpen
carmaker
cellphone
collect
collection
displays
emotional
encouraged
engaged
false
fatal
guys
midnight
motion
pensions
porn
pornography
printers
rains
remarkable
respect
restaurant
saved
shrugged
stick
teamed
tourism
tribal
##OS
##di
##fire
##gan
##gate
##hed
##iance
##lick
##net
##rell
##rk
##rted
##ually
##ucks
##wn
Abdullah
Ancient
Break
Church
Deadline
Extend
Jintao
Kelly
Kidd
Lilly
Manuel
Miguel
Mining
RAMALLAH
Redmond
Rule
SMS
Secure
Twenty
awaits
behavior
chiefs
cyber
delegates
doors
execs
express
extremely
frozen
guards
hybrid
icon
islands
liquid
metal
muscle
panels
pitches
rocks
safely
shocked
skills
specialist
spirit
structure
stunned
switches
tank
truce
unfair
unity
waited
wrapped
##IE
##IT
##afe
##ane
##cious
##eria
##fied
##ivity
##kin
##market
##nse
##oms
##print
##right
##ution
##vo
##zy
103
Austrian
Bureau
Cink
Doctors
Estimates
LG
Macromedia
Motley
Much
Need
Nepalese
Reliance
Rich
Rod
Roundup
Writer
animal
architecture
asbestos
blocking
circulation
creditors
enabled
expecting
expense
extinction
gadgets
indefinitely
journey
lights
likes
mainstream
mounting
perform
pirated
radar
readies
reign
resolved
resolving
respond
shaky
teenage
trio
tropical
welcomes
##PC
##US
##bor
##che
##cted
##fying
##igh
##lier
##lter
##ont
##rian
73
Acrobat
Barbados
Bosnia
Clash
Colo
ConocoPhillips
Dhaka
Doping
Dual
Expo
Invitational
JBoss
MPAA
Nazi
OT
Oscar
PTI
Quattrone
Sasser
Slobodan
Suite
Todd
Woman
academic
aging
burning
cybersecurity
decisive
dreams
electric
enables
hellip
jumps
knock
licenses
none
odds
pose
praised
processes
rotation
roughly
secretly
simultaneously
stemming
unsolicited
urge
volcano
##CA
##MA
##ior
##ji
##kins
##load
##making
##uming
##ura
##uri
03
09
140
19th
Beta
Cairo
Charlton
Dementieva
Explosion
Far
Fifth
Gatlin
HILLS
Hague
Jury
Lifts
Likud
Melbourne
Ottawa
Output
Portugal
Sachin
Schroeder
Send
Settles
Suu
Takeover
Telecommunications
UCLA
Villa
attacker
beheading
branded
catcher
clearly
comment
creates
enemy
enjoyed
experiment
exploit
exploration
findings
industries
intention
mainly
obtained
park
peaceful
protocol
qualify
samples
screensaver
spotted
spurred
successive
testimony
weren
##NE
##NG
##TH
##af
##igned
##ily
##ime
##ius
##of
##ops
##pace
##pose
##rch
##ues
##ways
AFC
ATI
Ansari
Arts
Away
Caminiti
Casino
Denies
Enter
Enterprises
Feds
Ground
Kyi
Living
Metro
Mid
Notes
Own
Raymond
Rio
Rivers
Shoppers
Spirit
Texans
Thunderbird
Tobacco
Trust
UBS
Urban
Vienna
Westwood
approximately
causes
clears
constitution
decisions
disputes
doubleheader
encourage
experiments
formats
hanging
hosted
improvements
investigations
junior
legislative
mix
opportunities
outstanding
partial
politician
proceedings
promoting
purchases
recognition
shattered
speaking
steep
tears
undergo
valuable
verdict
walking
widened
##EST
##VE
##World
##ase
##bal
##ience
##ination
##oes
##oring
##tics
##vel
147
Auction
Augusto
Bosnian
Communist
Concern
Dip
Executives
Hendrick
Lara
Lawsuits
Marcus
Marketing
Myskina
NV
Nasa
Nelson
Phishing
Sachs
Tyrone
Unilever
Weighs
authentication
bag
bargain
bet
carbon
challenged
covered
dairy
debuts
deployed
detention
dog
downtown
headlines
hurdles
nears
occupation
oldest
pointed
prosecution
recalls
reiterated
smoke
sporting
strengthening
tourist
tradition
wish
##MB
##ND
##OM
##TE
##ams
##don
##fies
##hs
##ines
##ller
##ogue
##oking
##ored
##stic
##uins
4th
Bernard
Britons
Coughlin
Dale
Defending
Donovan
Dunhill
Haas
Hardie
Heavy
Henin
History
Joins
Knight
Large
Lexmark
Losses
MPs
MRK
Mourning
Nevada
PK
Pharmaceuticals
Playing
Standards
Supercomputer
Surgery
Term
WPP
Woes
affairs
attackers
attacking
awaiting
barred
bounced
considers
dictator
disrupted
formerly
fuels
golfer
gunfire
homeland
incidents
introducing
lackluster
laser
learning
legacy
maintained
margins
mouse
optical
outbreak
peacekeeping
picking
seize
sideline
stories
sub
tactics
testified
tip
twist
unanimously
undisclosed
weapon
##HS
##ailed
##ato
##ig
##ipe
##istic
##kes
##lia
##matic
##nsion
##ski
##tter
##umble
##uting
Art
Block
Book
Clashes
Ed
Forget
Gaming
Interfax
Killing
MLS
Marshall
Mondavi
Mumbai
Others
Pictures
Quake
RBI
Raise
Sheikh
Solutions
Stockholm
SuperSonics
Theo
Utd
Wars
Weapons
airports
apartment
arch
bombers
comprehensive
contain
difference
dip
eating
extradition
fixes
founders
halfway
hydrogen
ideas
influential
initiatives
label
militiamen
nasdaq
offseason
orbiting
predicts
rail
recruits
regulation
remainder
smoking
surprisingly
timing
turnaround
uncovered
websites
window
##IR
##eak
##eo
##gage
##gn
##lly
##nces
##set
##wide
100th
Arrest
Core
Cox
Defends
Disc
Execs
Few
Graham
Hungarian
Impact
Kumar
Laboratories
MasterCard
Matthew
Members
Palmer
Plot
Recording
Rugby
Sex
Shareholders
Sooners
Spammers
Teams
Update4
WMC
Wade
acting
anywhere
assessment
ballistic
collaboration
continent
disrupt
empire
faith
flee
funded
generic
harder
hardly
honor
institutions
landslide
locations
meaning
minds
rein
restructure
slain
speeds
staying
stuck
talked
turf
upgrading
waste
wholesale
wrote
##BI
##ai
##aries
##iate
##int
##j
##logy
##rill
##sist
##zi
104
550
Accused
Advances
Amsterdam
Arnold
Brent
Cleric
Corey
Countries
Dispute
Eases
Education
Fort
Guillen
Hand
Held
Highbury
IPod
Inflation
Kent
Lay
Lithuania
Ministers
Morris
OB
Professional
Raid
Ramadan
Steps
Svetlana
abusing
array
avert
beach
bug
cite
concert
coordinator
embrace
focusing
frustrated
gross
intervention
lending
organizers
painkiller
plug
quarterbacks
readers
recommended
restive
reverse
revolution
royal
scams
scrap
slams
stopping
universe
viewing
##BC
##aving
##bi
##enko
##ep
##haw
##ids
##iest
##own
##oy
##pend
##roll
##rows
##ua
##urge
700th
BP
Barclays
BellSouth
Bundesliga
Challenges
Costa
FRANKFURT
Facing
Fernando
Fiat
Fourth
Griffin
Housing
Junichiro
Marks
NOVEMBER
Serbia
Yugoslav
aware
browsers
counts
divisions
dramatically
eager
empty
except
flies
freestyle
grown
highlight
hosting
household
interface
investing
monopoly
murdered
overturn
pride
protected
resulted
reviews
scan
sealed
silence
singer
skies
soar
stance
steal
substantial
thirds
transaction
unwanted
upper
##AT
##LEY
##OW
##dom
##iction
##ides
##max
##nic
##nis
##oid
##rent
##verse
ABUJA
Arkansas
Blues
Canadians
Cape
Captain
Days
Deaths
Dennis
EAST
Freed
Grenada
Grey
Hynix
Investments
Jenkins
Jimmy
Jumps
Nissan
Opening
Orbitz
Pace
Shane
Spencer
Struggling
Victims
WiMax
alongside
await
cited
conceded
crushed
dipped
duties
farm
firewall
followers
formula
hidden
holder
hub
hurdle
illness
lists
mainland
mood
plastic
requested
rural
sample
society
spike
stamp
stiff
trophy
ugly
unmanned
upheld
useful
veterans
villagers
writers
##aming
##cale
##fast
##guard
##lin
##lined
##loom
##low
##mann
##ology
##oned
##umbling
##wl
##yle
Acquire
Across
Ahmed
Body
Care
Centre
Cole
DSL
Deficit
Hoya
ICANN
Image
Jeter
Koreans
Lift
Lukoil
Managers
Needs
Nicolas
Norodom
Opera
Orthodox
Pavano
Postal
Ramadi
Re
Society
Sosa
Suspended
TheDeal
Thierry
Tournament
UFJ
Working
arena
assist
chair
climbing
contention
cruise
currencies
delivering
excited
forest
forget
fortunes
frequency
halftime
handing
introduces
loaded
location
militias
modified
oversight
patrol
plunge
reflecting
represents
responded
restrictions
robots
seemingly
sick
signaled
sliding
spare
supercomputing
teaming
thwart
toys
trademark
trillion
undergoing
##EE
##LAND
##cation
##ci
##gos
##iness
##ires
##logist
##nan
##ou
##play
##pping
##tery
##udio
##ush
110
Ankara
Barghouti
Based
Bernhard
Claim
Clark
Community
Damon
Foster
Hardenne
Hotmail
Icahn
KO
Liga
McCain
Photos
Quarterback
Role
Row
SQL
Sistani
Suspects
Turner
VeriSign
assured
audit
bail
burst
checkpoint
clashed
communities
convince
cracked
crop
digit
efficient
equipped
herself
highway
ink
investigated
lasting
neighborhood
notes
overshadowed
performances
personnel
probes
promotion
questioning
reporter
rings
secrets
settling
slows
spectrum
strange
submitted
unveiling
##10
##DE
##DT
##PA
##backs
##cate
##ements
##ese
##lated
##lay
##mi
##min
##ony
##pies
##ply
##pper
##rey
##rough
##stone
##words
115
21st
Annika
Beyond
Burundi
Capriati
Cellular
Continue
Coulthard
Darren
Fear
Images
Interstate
KIEV
Lows
Named
Perfect
Princess
Recall
Released
Ring
Ross
Sends
Success
Taipei
Transportation
Visa
Wallace
Weeks
Winning
aged
aggressively
bone
buzz
catching
celebrating
charity
comply
connect
controlling
countrys
dogs
dumping
enhanced
explore
extremists
folks
forthcoming
globe
harm
heated
hospitals
knowledge
miner
mortgages
neighboring
nice
nyse
participate
please
productivity
projected
raided
rebuild
riding
riot
seal
shelves
shops
sidelines
slum
technique
trainer
visa
weakened
wealth
windows
##AY
##INGTON
##UP
##ading
##band
##ception
##clusive
##eries
##ev
##holders
##ica
##mble
##olo
##ource
##po
##sm
##stein
##stitute
##tta
##udge
##uff
##van
17th
Albert
Authorities
BALCO
BANGKOK
Border
Brien
Bryan
Content
Crystal
Environmental
Goosen
Johansson
Losing
MELBOURNE
Oval
Payton
Protest
Rescuers
Same
Shui
Spaniard
Sr
Vaughan
Warne
apology
attempting
automotive
barrier
birdie
borrowing
cancel
centuries
channels
chicken
clubhouse
coastal
compatible
conclusion
confusion
convincing
correct
dedicated
degree
detected
disabled
discussed
experienced
factors
fat
frustration
governance
handful
height
hiding
hometown
hottest
labour
lender
marines
master
misses
nbsp
preparations
recalling
revealing
safer
separatists
sexually
telescope
tumble
tunnel
undefeated
volleyball
##GHz
##NT
##aged
##bank
##ced
##inson
##lish
##posed
##pp
##rine
##rn
##rum
##tein
##tling
##uin
107
1980s
1990
Athlon
Bashir
Berkeley
Canas
Child
Closer
Coles
Details
Employees
Fair
GB
Harrison
JFK
Joseph
Kellogg
Lazard
Makers
McNabb
Medicare
Mugabe
Novak
PORT
Parcells
Ponting
Powerful
Randolph
Rep
Salvador
Sybase
Think
Tri
aftermath
approached
betting
bian
bold
campaigning
commit
county
crowds
durable
eServer
enterprises
extraordinary
fields
fingerprint
glass
hints
href
hunters
initially
intent
invited
killings
laboratory
lingering
magic
mainframe
ocean
ordering
pirates
premium
preparation
referee
restaurants
sandwich
section
slipping
slumped
strengthened
suffers
temperatures
transition
ultimately
weigh
##0m
##MAN
##SI
##ano
##cho
##ei
##ester
##mpire
##nsing
##pite
##q
##ribe
##sia
##some
##table
##uiz
15th
1995
320
35th
Antarctic
Base
Bremen
Cars
Coalition
Cy
Deals
Delphi
GENEVA
Hudson
Hunt
INDIANAPOLIS
Link
Mine
Mountain
Passes
Reporter
Rescue
Sport
Stage
Step
Streak
Students
Studio
Tenn
Thanks
Tries
Tyson
Within
Word
advisers
affair
aired
apply
appointment
banker
breach
bruised
cancelled
captive
collective
concept
corporations
covering
definitive
designer
distribute
fishing
generated
grabs
highlights
holders
implement
inspector
iron
issuing
layer
missions
nervous
nor
obtaining
outgoing
outlined
papers
pill
pressing
register
represent
reward
sounds
thoughts
toxic
yuan
##ades
##arn
##imate
##lling
##mar
##od
##rier
##rupt
##site
##ump
##unch
##uns
##ups
##yn
Astronomers
Banknorth
Bradley
Cambridge
Champ
Clemson
Computers
Conn
DUBAI
Danish
Ease
Felix
Finally
Francis
Georgian
Huge
Imam
Introduces
Jupiter
Maathai
Marwan
Mayer
McKenzie
Ming
Nagpur
Name
Options
PITTSBURGH
Partner
Pixar
Playoff
Records
Selling
Servers
Sources
Suspect
Trip
Vaccine
Visit
WR
Weis
WorldCom
accepting
advisory
assistance
badly
bargaining
biotechnology
branches
cheer
chemicals
closure
commanders
communication
damaging
defeats
elderly
eliminated
evacuate
fleet
grant
heels
hurting
incoming
joy
jumping
leftist
looming
looms
luck
maintenance
monetary
narrowly
nature
nose
numerous
outfit
publishers
quotas
rated
repeated
routes
searched
snapped
spate
speaks
stats
stealing
surrender
tribute
tune
turnovers
underwent
voter
winless
##ame
##dale
##form
##game
##inal
##isan
##lands
##pec
##pes
##pur
##tasy
##ume
##ux
##word
125
1bn
Abuse
Ala
Barrett
Barroso
Because
Billy
Boise
Build
Burt
Canon
Chemical
Crown
Expects
Finley
Finnish
Hamza
Ind
Lane
Loeb
Mo
Mosque
Opener
Operating
PRINCE
Pa
Pat
Pete
Port
Property
Rutan
Scientist
Sergio
Simon
Slide
Spot
Trinidad
Turin
Villeneuve
Wildlife
accepts
achieved
acquires
adoption
argument
battleground
blown
brothers
buoyed
buyback
capping
casinos
collision
conflicts
consulting
contributed
conventional
cooling
deny
depth
desire
dial
earns
enjoy
equivalent
escalating
executed
fielder
forum
generally
goalkeeper
haul
introduction
mandate
misleading
moons
museum
notebooks
packages
performed
proceed
rallies
rejecting
relieved
scandals
shy
slips
soil
southeastern
sparking
stated
suits
throne
transactions
wages
wedding
##SON
##VER
##ags
##aks
##city
##cluding
##encing
##erve
##ex
##ez
##icism
##iving
##lations
##laze
##mps
##nia
##nity
##oping
##pts
##rained
##urse
##wall
##war
105
14th
850
Affairs
Alberta
Anil
Ball
Bode
Bronx
Bus
CNET
Civil
Crime
DALLAS
Die
Flights
Having
Hawaii
Indy
Kingdom
Malone
OAKLAND
PSV
Paisley
Power5
Protesters
Qatar
Qtr
Sinn
Skulls
Swift
Task
activated
arriving
artists
associated
athletics
attorneys
bear
beneath
blows
chat
clk
clouds
consolidation
crater
crystal
define
demonstration
disclose
discussion
displaced
ditch
diving
dragged
embarrassing
entirely
founded
greeted
hype
inevitable
matched
miracle
mound
otherwise
provincial
requiring
routers
satellites
scaled
sequel
smallest
strip
stun
submit
tailback
tired
uniform
walls
##HL
##ague
##asing
##cia
##citing
##cling
##eration
##fold
##gged
##inger
##iny
##minate
##ord
##tore
##tting
##uation
##ucked
##uds
##uo
##via
##wire
##woman
108
Aircraft
Bring
Buying
CARE
Cavs
Confirms
Debuts
Devils
EarthLink
Evidence
Expansion
Factory
Flaw
Futures
Grows
Insurers
Internal
Javier
Libyan
MINNEAPOLIS
Matsushita
Musicmatch
Northrop
Pensions
Platform
PowerBook
Pushes
Residents
Resume
Roethlisberger
Seeking
Shrek
Species
Starting
Taiwanese
Techs
Thompson
Total
Tracy
Trying
Uranium
Vick
Volvo
app
arguing
attended
capability
collected
companys
contender
counterfeit
counterparts
debts
designs
dumped
eat
extreme
fares
feed
float
genetically
grave
hearings
innovation
knocking
letting
multibillion
negotiator
neither
nights
organisation
outskirts
oxygen
poison
possession
raced
rescued
residential
roadside
rough
smashed
smooth
specification
sprint
spur
substance
surveillance
tear
thick
torture
traveling
unclear
undermine
unidentified
##ARA
##IL
##ION
##LA
##acher
##ass
##boro
##cking
##count
##dies
##eb
##eed
##fa
##nate
##versal
##wed
02
Add
Aung
Bangkok
Bucs
CSKA
Candidates
Deep
Delayed
Dillon
Fidel
Finish
Greene
Guerrero
Guide
Jail
Jordanian
Liberation
Lost
MarketWatch
Nothing
Puerto
SI
Scandal
Thaksin
Viagra
album
annually
approaches
atrocities
attached
bilateral
braced
burned
cheese
clinching
concrete
convinced
crossing
cruised
crushing
declaration
dirty
downloaded
downward
encouraging
featured
frontier
functions
grounds
immigration
indexes
journal
keyboard
km
laptops
lunch
marched
midst
mild
plate
racism
reflect
requirements
sabotage
shootout
sister
soars
sophisticated
southwestern
statistics
stole
strapped
tightening
touched
touted
ultimate
wary
wear
##IO
##RC
##ails
##ala
##asure
##ata
##bon
##care
##cas
##ctic
##ders
##iating
##ips
##ively
##km
##mal
##mation
##ott
##rail
##ression
##rity
##rupts
##serve
##uan
##yon
Athletic
BEACH
Cabrera
Caesars
Columbus
Coors
Date
ECB
Efforts
Ever
Fails
Finals
G4
Gerhard
Glenn
Globe
Grant
HIV
Holy
Host
IRS
Ice
Jennifer
Kumble
LAKE
Memorial
NAS
Overture
PFE
Playboy
Robson
STOCKHOLM
Shock
Stuttgart
Testing
Torre
Tungsten
Vancouver
Vitali
Wis
ambush
anticipation
automakers
automatic
bans
contested
crossed
crush
debates
diesel
duo
eurozone
exciting
fault
generate
gesture
import
innocent
innovative
listen
listing
mall
microprocessor
modestly
mud
oust
poured
reader
receives
refuses
resorts
restate
retains
securing
shield
spree
tips
trades
transportation
underlying
##bil
##cel
##cript
##iver
##lee
##mouth
##oks
##ong
##ovich
##rest
##rol
##tions
##uss
##view
##vises
##wick
113
1970s
1997
A9
ANAHEIM
Alleged
Baker
Banking
Benson
Bombings
Comments
Commercial
Conte
Doubles
Exit
Gay
Gogh
HPQ
Hispano
INQ7
Josh
Murphy
Ossetia
Patterson
Perez
Picks
Pocket
Pujols
Redknapp
Remains
Sciences
Sharply
TM
Taj
Ted
Valentino
Victor
apps
barrage
bars
blind
breath
chipset
courtroom
deadlock
delaying
elbow
engineered
evacuated
gases
hacker
indicating
intensified
interior
judgment
leaked
lined
married
mounted
persistent
principle
professor
propelled
prototype
reacted
removing
rooms
scrutiny
shirt
skin
tense
tighten
truth
types
usage
viewers
violation
watchers
wounds
wrap
wrist
##FT
##VIEW
##cape
##chase
##chi
##dow
##fe
##feld
##ho
##lad
##nie
##nlike
##ocks
##ork
##ova
##ree
##ret
##ride
##rove
##rts
##shing
##teen
##ulating
##vey
##wers
114
Age
Agencies
Amateur
Antitrust
Applications
BASEBALL
BR
Biggest
Coaches
Creative
DELL
DENVER
Davidson
Discuss
Edward
Exec
Fatah
Ferrero
Front
Hilton
Lab
Linksys
Midway
Nalbandian
Numbers
Opec
Portuguese
Saint
Santiago
Selig
Slovakia
Spy
SunTrust
Temple
Tens
Thanou
Transport
Trend
Wachovia
Walter
Willis
abruptly
avoided
axe
bullish
casting
ceiling
combine
completes
confrontation
dangers
destroy
develops
directories
external
factions
favour
forge
fragile
functionality
gifts
glimpse
hails
indicates
informed
junta
kidney
layoffs
legendary
male
marred
mastermind
outright
parade
properties
qualifiers
reeling
reminder
requires
reversed
risen
robotic
roots
rover
saves
scenes
taste
tipped
tossed
weary
yellow
##AM
##IX
##KI
##MS
##Net
##SH
##TER
##TV
##acked
##aring
##bilities
##cast
##cating
##cor
##dating
##door
##iac
##iser
##lving
##nger
##nova
##olio
##owed
##range
##sight
##taining
##tically
##ugging
##urance
180
450
ALCS
APEC
Arabic
Arrests
Assam
Assault
Belichick
Bids
CARACAS
Cooperation
Design
Device
Doesn
Download
Due
Edges
Egyptians
Environment
FOOTBALL
Flaws
Floods
Growing
Hal
Hernandez
Hokies
Huygens
Inside
Instant
Mini
Molson
Natural
Offering
Operations
Order
Otellini
PDAs
Plays
RB
Range
Rare
Recalls
Regulators
Reported
Rubens
SGI
SHANGHAI
Safeway
Tesco
Train
Wakefield
Werder
Wholesale
Wilkinson
accelerate
acquitted
addresses
amazing
argued
bearing
bets
bite
celebrates
columnist
consumption
copyrighted
coveted
detect
diet
eases
enhancements
enhancing
fiber
filling
finances
foul
genes
gotten
hang
harsh
la
lashed
lengthy
medicines
mourning
partly
polling
portion
prayers
preventing
rejection
reversing
segment
sessions
shoes
slalom
stressed
taps
tariffs
trained
understanding
withdrawing
yields
younger
##AQ
##NY
##RD
##ado
##aire
##amp
##ana
##arch
##aunted
##cess
##cial
##cott
##iki
##iling
##ira
##jet
##lers
##lm
##mates
##monds
##nings
##olar
##oos
##ported
##spect
##tel
##uit
##ulls
##ye
112
1B
Advertising
Aim
Ajax
Ariz
Avenue
BAE
Brief
Brings
Byrd
Cazenove
Cities
Computing
Congolese
Crashes
Duncan
Expand
FC
Fein
Fine
Format
Goldwyn
Goods
HBOS
Hearing
Jailed
KHARTOUM
Keane
Lance
Leinart
Meets
Monaco
NYS
Palestine
Petersburg
Ramallah
Reform
Speech
Split
Television
Tonight
Urge
Walkman
WebSphere
apparel
assassinated
automatically
birdies
captivity
chapter
citizen
click
commodity
compact
constitutional
contained
creator
critically
defiant
denial
developments
dressed
earliest
equal
examine
exceed
exchanges
finalized
fledgling
focuses
footage
gearing
hammered
hungry
inmates
invitation
liable
log
medallist
outlets
overwhelming
pointing
policeman
posed
printer
proprietary
reorganization
representative
routine
seeds
specifically
studying
tag
touts
trains
trigger
unleashed
upgraded
variant
withdraws
##ILL
##YA
##ager
##aping
##aq
##art
##bservatory
##cide
##cker
##cover
##gation
##iated
##ically
##ined
##isation
##iz
##logists
##lone
##lson
##oon
##rable
##rect
##rior
##tis
##tra
##tre
##ube
##uding
##year
145
1992
210
3Com
7E7
AIM
Agriculture
Any
Application
BCCI
Backman
Bakeries
Bombing
Bond
Bucks
Bud
Chance
Come
Curse
EA
Ferdinand
Fidelity
Forecasts
Full
HAGUE
KUALA
LUMPUR
Laboratory
Lawrence
Level
Mariano
McGrady
Me
Myer
Northeastern
Number
Opinion
Paradorn
Pipeline
Polls
Quebec
Ryanair
Sector
Shaq
Sihanouk
Sims
Solar
Strategy
TAIPEI
Tiny
Tyco
Uefa
VANCOUVER
Vieira
WEST
Witnesses
biotech
burden
bury
champ
chasing
consequences
consoles
criminals
derby
discs
eyed
foes
gallon
guarantee
hook
immigrants
marine
meat
nominee
passwords
petrol
plasma
pleading
poses
powerhouse
preserve
print
recommendations
recorders
restart
roared
runners
shortages
smartphone
spirits
surfers
surrounded
swung
ultra
wraps
##DP
##LY
##OR
##acts
##ae
##dra
##fused
##gence
##gling
##graphic
##hen
##illa
##lating
##let
##misphere
##ols
##raft
##rid
##rion
##rman
##roving
##sen
##tent
##ubs
##ucky
##ugged
##ulator
##ulture
##undering
##usted
##where
##yard
##yun
##zes
5bn
ARM
Avoid
BANGALORE
Bahamas
Basra
Bomber
Buckeyes
Constellation
Constitution
Cool
DIEGO
Engineering
Explosions
Fan
Ga
Hike
ISPs
Inquiry
Jenson
Jiang
Kurdish
Lazio
Lehmann
Mason
Misses
Mohammad
Months
Newspaper
Page
Patch
Path
Prepares
Pulls
Reader
Rob
Ronaldo
SD
Scores
Sharman
Siege
Sweep
Tsunami
Urged
Wannstedt
Warren
Works
Xstrata
Yes
admitting
argue
blaming
bolstered
breathing
builds
checking
commanding
compliance
conducting
contenders
derail
dig
disarmament
diseases
dissident
distributing
divide
downhill
fence
fortified
hefty
insisting
leap
ligament
measured
midsize
mines
nearing
orange
painful
particular
pause
pleased
promoted
pump
ransom
resource
retiring
saga
shaped
shark
shrinking
slew
sparks
sprinter
stretched
tea
tightened
tone
toss
typical
underground
weighing
wondering
wound
##LT
##USE
##ac
##adler
##ef
##ends
##erial
##gging
##gled
##ister
##iting
##lop
##lves
##mire
##oni
##oration
##road
##rse
##shed
##stitution
##tu
##urn
##vis
##voked
1994
Acquires
Ambani
Anglo
Bernabeu
Between
Brandon
Cancels
Cayman
Chain
Closes
Comes
Critical
Dept
Downer
Earlier
Earthquake
Eclipse
Extra
Grokster
Gutierrez
Heathrow
Jerome
Katie
Leisure
Lone
Lou
Lowers
Lumber
McGrath
Molik
Morocco
NNN
Nationals
Owners
Prosecutor
Quincy
Quits
RUTHERFORD
Radical
Reggie
Robin
Salesforce
Solberg
Srichaphan
Tass
Telegraph
Until
Veteran
Woolworths
Xinhuanet
affordable
amounts
announcements
antispam
anyway
auditors
boards
cafes
crops
curse
deeply
discover
dismisses
evacuation
festival
firmly
flexible
furious
hair
indicate
isolated
linking
lobby
memories
mln
mouth
novel
paramilitary
peers
posing
rank
regained
revolutionary
rubble
seizing
seller
shifting
sounded
sprained
swappers
tanker
universities
warlord
width
##30
##FORD
##Pass
##TI
##acing
##asts
##aught
##coming
##corp
##election
##gg
##ingly
##ixon
##kers
##ledging
##loyment
##lue
##mic
##nder
##ners
##oints
##oom
##pulsion
##sity
##surgent
##tate
##thy
##ufficient
##ument
##urst
##zar
230
2Q
43A
4bn
Acquisition
Adelaide
Adelphia
BAY
Being
Blogs
Bovina
Bowden
Box
Cat
Chiron
Citing
Copyright
DRAM
Democracy
Dodge
Farm
Fleming
Frenchman
Gardner
Gymnastics
Homer
III
Joey
Johan
Joint
KPMG
LAS
Library
MIT
Made
Mario
Mittal
Montoya
Morning
Moving
Operation
PepsiCo
Politics
Pound
Pre
Probes
Recovery
Retirement
Richardson
SANTA
Schools
Seagate
Sebastien
Soars
Upset
Worm
adult
affecting
airplane
appetite
applied
approaching
arbitration
athlete
bosses
broadcaster
bugs
bypass
chains
consensus
contentious
crowned
dance
dating
decides
disciplinary
disruption
dominating
dump
everywhere
excess
flurry
foiled
fold
grim
happens
iPods
imaging
inches
kid
lots
majors
medics
methods
migration
municipal
obvious
payroll
petition
pitchers
poorest
putt
relentless
revered
sack
senator
shuts
slim
sore
stored
surplus
switching
tale
truly
values
videos
walks
x86
##ARD
##ERS
##Soft
##TC
##agle
##alded
##ama
##any
##atch
##awn
##cute
##eping
##fect
##iding
##iller
##inate
##ining
##istics
##ito
##ived
##lla
##nology
##oft
##ogic
##oil
##oma
##paid
##piration
##points
##rowing
##run
##ruption
##ucci
##uzz
##vert
##vise
3D
ABIDJAN
Already
Approval
Arrington
BY
Broadcasting
Buenos
CHARLOTTE
Class
Diplomats
Dominican
ElBaradei
FL
FNM
FOXBOROUGH
GPS
Handheld
HealthDayNews
Her
Heritage
Homes
Increases
Marriott
Marvel
Monster
Motorsports
MyDoom
Mystery
PCI
Palmolive
Pole
SW
Saban
Spotlight
Stelco
Tata
Updates
Ups
Wide
Woodward
abused
actor
acts
admit
assess
automated
avoiding
banner
bellwether
brilliant
broadcasting
broaden
brutal
bulk
buses
complicated
counties
declare
defenses
disclosure
eligible
eliminating
enhance
entrepreneur
exposed
honour
inched
interference
load
medalist
method
nightclub
notorious
objections
origin
pct
prevented
protesting
racial
rallying
recorder
refusal
rely
revamp
serves
smile
spell
subscriber
superb
suspicious
tapped
topping
triggering
urban
vow
##04
##ICO
##ISH
##MP
##PS
##UE
##aching
##ailing
##amination
##ank
##aval
##ayed
##bridge
##cus
##ease
##ency
##ene
##eta
##eting
##fort
##ibility
##ien
##ired
##iva
##lle
##lls
##lyn
##mber
##nation
##nell
##ola
##pression
##rayed
##riot
##riving
##rl
##taking
##tton
##ued
##ugs
##uma
##urned
##usion
##vated
08
2bn
Academy
Aires
Arbitration
Arlington
Aston
Berti
CAPE
Calgary
Capsule
Consider
Count
Deadly
Denmark
Did
Drives
EMI
Effort
Ethiopia
Extreme
Fewer
Funk
Gillette
Grumman
Hare
Hearts
Hutchison
Idaho
Independent
Investigators
Lloyds
MANCHESTER
MUMBAI
Magazine
Mel
Mercantile
Mitchell
Mutual
MySQL
Nairobi
Perhaps
Porn
Protests
Retire
Rouse
SANTIAGO
Story
Symbol
Thabo
Troubled
UAIRQ
Veerappan
WSJ
Wangari
Wildcats
Worth
Wounds
aftershocks
airwaves
backers
bargains
belief
benefited
bones
brewer
cement
cites
contractors
declaring
directed
diverted
drinking
enemies
epic
epidemic
essential
fallout
feat
finishes
forests
gang
hammer
implementation
interception
interviews
kicker
lowering
lowers
middleware
nowhere
opposing
outs
pipelines
politically
pounding
precious
predicting
provisional
punishment
purportedly
refuse
registration
replaces
routed
salvage
sleep
snow
soybean
steelmaker
stomach
succeeded
succession
tall
teachers
tenure
testify
theme
thrilling
trends
troubles
upward
##BO
##GER
##NC
##SC
##UL
##ZN
##arl
##aver
##bb
##ciate
##cture
##ference
##ffs
##fielder
##fit
##gist
##gram
##hang
##hysics
##itation
##lus
##mitted
##moth
##ographic
##ological
##ologists
##ought
##pped
##rade
##rified
##udging
##uilt
##ursing
##used
##week
Anfield
Astronaut
Bee
Bulldogs
CSCO
Calling
Carly
DeLay
Demands
Doug
Each
FORT
Hear
Jihad
Kiev
Lankan
Macintosh
Marc
Michelle
Militia
Munch
Nature
Outsourcing
Performance
Pitcher
Practice
Programs
Robbie
SAS
Shaun
Shinawatra
Ship
Sierra
Silver
Sourav
Southeastern
Speaking
Surprise
Thorpe
UPS
VEGAS
Visits
Willie
Wood
Zafi
Zvonareva
alternatives
architect
behalf
breast
cellphones
characters
chart
delighted
demonstrators
destroying
discussing
eagerly
edging
flawed
fortune
fumble
guaranteed
hazard
heightened
households
intact
interoperability
keeper
landscape
lenders
logic
marketplace
maximum
minimum
nationals
nephew
obtain
operates
organized
pennant
podium
pressures
prestigious
procedure
punish
ratified
recognize
recommend
relative
repeatedly
revamped
revival
rust
scramjet
searches
shoots
slaying
sophomore
southwest
spinner
tackles
tension
thieves
transplant
tripled
villages
watches
##AC
##BURN
##HAM
##RO
##active
##aker
##akes
##amed
##apping
##ators
##dication
##gae
##glers
##grade
##guards
##hid
##iary
##ico
##ider
##ife
##ift
##ilities
##iya
##ject
##lessly
##lished
##loppy
##nap
##nds
##night
##oot
##oro
##oses
##ously
##ples
##ressing
##rise
##rock
##security
##tled
##uality
##uest
##umbles
##under
##unning
##ural
##vest
##vising
4Q
ADVERTISEMENT
Annual
Borland
Buddhist
Called
Camera
Clara
DR
Exports
Garciaparra
Given
HSBC
Heinz
Income
Interactive
Karl
Keegan
Laura
Luxembourg
Massu
Melvin
Microsofts
Minaya
Monitor
Nathan
Nebraska
OECD
Per
Points
Randall
Reed
Roh
Rutgers
Soar
Spacecraft
Suits
Traffic
Widens
Winner
afford
ballpark
bunch
choices
definitely
denying
determination
discounts
downgraded
downs
facts
failures
foe
foray
forgotten
function
gadget
generator
glitches
heats
ignored
inspectors
lethal
lies
loose
mere
mighty
mob
motor
nasty
noted
ordinary
paving
payrolls
pocket
pursuing
qualified
remembered
restoring
retires
rubber
seekers
select
shipment
silent
simplify
sink
spoken
squeeze
staging
sugar
suppliers
suspensions
tags
teen
televised
upstart
voluntary
woo
##DO
##ELL
##LM
##SB
##aling
##ao
##avor
##bble
##bert
##book
##cam
##cap
##dt
##ello
##eous
##fare
##lance
##lant
##lmer
##mb
##oan
##patched
##ras
##rm
##roup
##sify
##ssier
##tility
##titude
##turn
##uge
##user
##vish
##we
##wear
Achilles
Analyst
Apache
Beagle
Buick
Buttiglione
Cube
Developer
Ecuador
Eindhoven
Enters
Extension
FALLUJAH
Faster
Freeze
Gray
Had
Halifax
Halt
Hilfiger
Interim
Iverson
Lauren
Mach
Murder
NHLPA
NO
Networking
NextWave
Peoplesoft
Priest
REVIEW
Region
Remain
SOUTH
Sanjay
Sergei
Slightly
Solution
Song
Sonics
Sparks
Steady
Tire
Tools
Triple
Upsets
WGC
Wait
Whether
achievement
administrator
appearing
bandwidth
blames
blogs
booked
bout
bundle
caps
cheered
cluster
clutch
complained
condemns
cream
debris
detail
detection
disastrous
disorder
doomed
doubtful
downgrade
dying
embryonic
endorsed
exist
expires
fare
fraudulent
frequent
grass
hinted
horizon
horror
hovered
intensive
kickoff
matters
narrowed
neighbors
nobody
northwest
packing
participants
pile
proves
quota
ratification
rays
reluctant
revived
scrambled
sectors
shower
signaling
solved
stellar
suggestions
sum
superstar
surges
tally
telecast
thigh
traces
workstations
yield
youth
##MO
##RB
##alf
##apped
##aven
##bles
##chan
##cise
##cu
##dez
##dro
##eg
##ement
##enary
##ession
##etter
##ferred
##gi
##hic
##hot
##hur
##ias
##iner
##iral
##jected
##licate
##lining
##lion
##main
##mining
##nag
##oked
##osition
##otic
##pa
##roke
##stood
##tti
##tures
##uk
##uration
##vention
##yed
##yes
117
1918
1980
1991
240
340
Africans
Alert
Astronauts
Bankrupt
Batman
Beltre
Books
Boss
Bristol
Cause
Clears
Construction
Copernic
Coventry
Create
Diebold
Dig
Doughnuts
Easy
Eleven
Evans
Exporting
Forward
Gilchrist
Goal
Greenberg
ING
JOHANNESBURG
Jake
KANSAS
Knee
Lack
Mikhail
Newman
Nowitzki
Optimism
Oxford
Padraig
Peruvian
Pick
Pilot
Recent
Retailer
Risks
Rout
Sometimes
Sophos
SuSE
Sukarnoputri
Tells
Threats
Tomorrow
Tower
Transactions
UAE
Waziristan
accelerated
aluminum
apologized
appliance
artificial
attending
behead
boat
bowler
burn
chest
completion
confirmation
copper
deserved
dinosaur
dismal
drugmaker
dry
dug
enjoying
explanation
fend
fitting
honored
indication
interactive
keen
kidnap
kingdom
kit
lap
licensed
lie
maiden
nanometer
noon
obesity
outages
outer
priest
produces
purpose
rattled
receivers
retreated
rib
rumors
severely
shortfall
sinks
spaceship
spinning
starters
startup
stir
stranded
suspends
tendon
treatments
visible
wanting
wet
##HG
##IP
##WS
##alls
##body
##cles
##downs
##esy
##fuse
##ground
##gular
##hone
##ield
##ign
##ishing
##izer
##len
##loy
##mart
##mers
##named
##nounce
##owners
##poses
##position
##races
##ram
##rations
##rency
##rills
##ror
##scription
##sides
##thlon
##tical
##uate
##ught
##uished
##uka
##una
##vine
##walk
##works
##yo
144
170
3bn
Aere
Ahold
Amit
Anastasia
Arabs
Ayatollah
Bettman
BusinessWeek
Businesses
CLEVELAND
Clarett
Critics
DECEMBER
Dakota
Defeats
Dips
Draw
Dwight
Explosives
FON
Fleet
Funai
Furcal
Glaus
Graphics
Halloween
Holtz
IL
ITunes
Italians
Karachi
Lakes
MARK
MILAN
McDowell
Meanwhile
Midwest
Might
Netegrity
Nottingham
Overtime
Pats
Pierre
Processor
Rico
SC
Sao
Side
Supporters
TDs
Toolbar
Uganda
administrators
anonymous
appealing
batch
breakaway
cancels
character
chess
cultural
cyclist
desperately
employed
entrance
environments
exception
exploits
faulty
feud
frame
fueling
furniture
gates
glitch
grocery
guarded
gymnast
hate
hearts
helm
impending
incentive
lately
litigation
located
maintains
matching
murdering
odd
operative
oppose
opposite
pointer
premature
resulting
runoff
scrambling
shoe
singled
solo
suburban
surprises
teenagers
territories
trim
voiced
##80
##CH
##EO
##IG
##Jet
##NCE
##OL
##OT
##ace
##aches
##acking
##bin
##card
##duce
##ech
##eller
##eographic
##fish
##fling
##gant
##hander
##has
##icks
##icted
##idden
##ita
##iversified
##lieve
##love
##marks
##mbling
##mmune
##novation
##och
##offs
##onso
##oop
##pass
##quest
##reed
##rner
##ropriate
##rra
##tches
##ttering
##uise
##uising
##uments
##vable
##xy
1x1
200301151450
Admits
Aide
Ann
Ashcroft
BEIRUT
Bettis
Bhopal
Cambodian
Christopher
Comeback
Crossing
Database
Desert
Diana
Directors
Discovery
Embattled
Fees
Finding
Flood
GDT
GHz
Gamble
Gerry
Grow
Guerrouj
Guillermo
Hospitality
Indoors
Integration
Kidde
Kids
Lama
Lands
License
MP
Marino
Minn
Mohamed
Monty
PLO
PRNewswire
PS2
Pac
Paralympics
Phillips
Pinsent
Planes
Planned
Print
Providence
Quit
Renteria
Robot
Sanders
Shevchenko
Shift
TI
Unisys
Via
WHO
Wolfsburg
ZDNet
basket
beauty
billing
blitz
bust
checked
choosing
cigarette
contacts
contribute
contributions
cooperate
criticised
dates
disengagement
dismissal
ear
elimination
embedded
ethics
finger
flows
hide
homeless
idg
ifw
img
improves
inflated
inspections
institutional
keys
kilometers
locusts
mates
melting
meteor
milk
misery
multimillion
musical
narrower
object
ord
owes
palmOne
pioneering
primarily
prix
provinces
rampant
reconstruction
resident
retained
rewards
satisfaction
semis
severance
shifts
slapped
snaps
sorry
spying
squeezed
src
stockpiles
strife
surfaced
sz
tackling
talented
tearing
unhappy
viewed
yourself
zero
##CO
##DI
##KS
##UI
##abyte
##asis
##ask
##bile
##bling
##bone
##bound
##break
##cheduled
##dation
##dited
##ec
##ected
##forced
##holder
##holding
##hop
##ights
##ila
##inder
##inema
##irate
##irk
##itions
##laughter
##lient
##lled
##log
##ludes
##nded
##ntal
##ode
##old
##oning
##ono
##ourned
##paring
##rait
##rary
##rents
##rief
##rieve
##rist
##roads
##sted
##tan
##tend
##trial
##ucker
##ueling
##ule
##umors
##urry
##vist
##wa
16th
AMR
Abuja
Aceh
Administrator
Agent
Altria
Amnesty
BESLAN
Bextra
Buckingham
Carling
Carmelo
Century
Coliseum
Culpepper
Deportivo
Emergency
Endangered
Federated
Form
Fossil
Gannon
Geoff
Girl
Greater
Heating
Hires
Hiring
Hole
Jammu
Kerr
Kiwis
Kosovo
Lawyer
Lima
MANILA
Millennium
Never
Northwestern
Opel
Oswalt
Paralympic
Philly
Primera
Producer
Resort
Rogge
SMB
Saks
SanDisk
Shia
Softbank
Somalia
Starter
Surges
Text
Update5
VW
Valuable
WiFi
abrupt
advancing
airliners
alarm
amateur
anymore
artillery
attractive
autonomy
beaches
celebrity
citizenship
cleaning
coma
commissions
complain
conferencing
convert
crashing
devastation
dinner
dioxide
discusses
exceeded
fading
famed
fashioned
frenzy
gauge
glance
grain
grilled
homecoming
impressed
jurors
keynote
leagues
lesson
loved
marijuana
measuring
memo
merely
midday
org
organize
outlooks
passage
presidents
profitability
radiation
railway
reopen
respected
restored
resumes
reviewing
revolt
risky
seals
shouldn
skip
slashing
southeast
swift
toughest
tournaments
witnessed
##DAY
##GA
##LS
##PO
##WN
##WOOD
##abi
##ables
##amps
##angle
##arian
##aves
##cier
##dicate
##die
##due
##ehouse
##ert
##gether
##gnant
##gne
##hers
##hibit
##hurst
##icking
##iers
##ishop
##mont
##nified
##ocust
##oli
##olve
##oof
##ope
##oral
##pedition
##pic
##piece
##raits
##rand
##real
##rily
##rling
##ructing
##self
##soft
##umps
##unned
##uter
##vs
430
AB
AN
Ahmad
Alive
Arrives
Assets
Automotive
Bagle
Beirut
Borders
Brisbane
Candidate
Coleman
Congressional
Considers
Costco
Croatia
DIS
Diouf
Dividend
Drivers
Everyone
Evolution
FDI
Fired
Flying
Franco
Francona
Germans
Guy
Highs
Himalayan
Howe
IDF
IETF
Itar
Jews
Keeping
LP
Liberal
Linda
Madden
Majority
Martnez
NAIROBI
Nielsen
Ofcom
Ore
Oslo
Outside
Perth
Pop
Preseason
Protect
Q4
Readies
Rite
Silva
Stone
Stuart
T5
Talladega
Taser
Training
Used
Value
Vincent
Wally
Wanted
Wolverines
advised
affiliate
arsenal
assigned
attitude
circulating
combines
compiled
concerning
confirming
conservation
consideration
contains
cracks
credibility
custom
describes
drag
embryos
employer
extensive
favored
flown
glaciers
govt
havoc
holdings
hotly
hung
ignoring
injures
installation
judicial
liberal
likelihood
lineman
liquor
lucky
managerial
medley
mental
nationally
normally
palace
plutonium
quarterfinal
rebellion
regulate
rematch
repay
requests
resuming
rigged
ringers
roofs
shaking
somewhat
spectators
steering
strategies
symbol
technological
teens
topics
transmission
unauthorized
united
veto
weighs
whale
wrestling
##AP
##BL
##BS
##EAD
##EC
##EM
##EY
##HIS
##INA
##INE
##IRE
##PR
##SX
##TION
##aded
##aeologists
##atics
##bao
##berger
##ccuser
##coa
##cot
##ddy
##duct
##empt
##fining
##gua
##hat
##how
##iamond
##ilt
##inals
##ista
##itage
##kov
##lent
##loaded
##locked
##mO2
##mitting
##mone
##nn
##olk
##osis
##ound
##plode
##quer
##raced
##rc
##ream
##rial
##roat
##rown
##rvation
##see
##sis
##tention
##ualification
##uder
##udi
##uf
##ulous
##ultan
##umption
##utrition
##vage
##vas
##xim
100m
136
1m
5th
Accuses
Acer
Allies
Asset
Bakar
Battles
Brain
Brees
Catch
Caterpillar
Closing
Commonwealth
Compuware
Damage
Defensive
Develop
Developing
Draws
EL
ENRNQ
Earthquakes
Elizabeth
Erdogan
Exxon
God
HAL
Humans
IV
Injures
Interview
Justine
Khatami
Kroger
Lieber
Linked
MO
MOJAVE
Mardy
Marxist
McGahee
Mosley
Mubarak
NASD
Obasanjo
Poised
Privacy
Regional
Reid
Reject
Rocky
Rosenborg
Rouge
Safe
Samuel
Ships
Stevens
Sullivan
TX
Teen
Told
Travis
UC
UConn
Vazquez
Wonder
Wrong
Yellow
abduction
accelerating
alter
ancestor
bags
bandit
bln
blowing
bow
bowling
burial
capturing
clusters
consolidate
dash
depleted
describe
designated
desk
difficulties
disappear
disappeared
disasters
enabling
explains
forecasters
framework
hears
hires
influenza
jumper
knowing
latter
leaning
legally
legs
length
letters
listening
listings
losers
lung
martial
mess
microprocessors
navy
nomination
northwestern
noticed
pivotal
poisoning
prefer
printing
projection
properly
regret
reliable
sellers
shrimp
slice
speaker
speedy
steadily
stunt
substantially
surpassed
touches
touting
unarmed
unlimited
vacant
violate
volumes
welfare
##ART
##MD
##VS
##action
##adow
##adows
##aning
##aper
##bby
##bour
##cclaim
##craft
##cular
##dated
##dicated
##drome
##ein
##eri
##front
##graphs
##hack
##hales
##headed
##holds
##iah
##iant
##ich
##iff
##ige
##iking
##imistic
##irs
##islature
##itters
##ken
##leek
##link
##made
##nas
##nomy
##nyder
##oots
##orge
##osur
##piring
##posure
##rious
##ruck
##tine
##tress
##tro
##uating
##uel
##ulent
##umed
##unce
##urks
##usts
##usty
##vail
##vent
##vide
##vised
##volved
##warm
ALH
Agenda
Azeri
Backe
Barca
Bellamy
Bhutto
Britains
Burns
Calpers
Climbs
ContentGuard
Controversial
Controversy
Correspondent
Durable
Envoy
Evil
Expectations
Founder
G20
GAME
GMail
GSM
Giving
Got
Horse
Iceland
Independence
Investigation
JNJ
Judges
KMRT
Kostas
Laos
Leeds
Leftwich
Lion
Mojave
Moody
Negotiations
Newly
Nobody
Pass
Pippen
Properties
Proposal
Pull
Quick
Ricardo
Roberts
Robertson
Room
Sammy
Santos
Serbian
Shootout
Skins
Smithfield
Somali
Son
Storms
Sugar
Tape
Things
USB
Vatican
Vera
WORLD
Watson
Were
Wire
YHOO
Yang
Yum
animated
apiece
appliances
bed
bizarre
category
celebrations
concession
contribution
converted
curfew
deliberately
deportation
directory
edges
eggs
escapes
everybody
extinct
fiery
forever
forming
groin
hangs
html
identifying
imagine
impasse
implications
indeed
invented
leaderboard
legitimate
loud
medication
merchandise
mergers
middleweight
midway
missteps
mobiles
mountains
operated
outpost
overcoming
participation
patience
photography
preferred
prevention
proclaimed
purposes
reaffirmed
recommendation
regrets
rejoin
renew
riots
rollout
rumours
scattered
secondary
shaken
shelters
spat
subpoena
surviving
tasks
timetable
trimmed
venue
voluntarily
waits
warrant
washed
wheel
widen
widens
##GP
##Hz
##MG
##RL
##WA
##arm
##ashes
##aze
##ban
##beat
##borne
##brook
##eam
##ergeant
##finite
##flict
##flight
##gies
##harmacy
##ibles
##iologists
##irt
##iss
##lank
##lex
##lie
##logical
##luded
##nged
##nick
##nting
##oline
##ount
##pered
##pired
##ption
##raining
##rawling
##remors
##rim
##rises
##rous
##sembled
##suring
##tary
##tegrity
##uct
##ultural
##urious
##vatives
##vic
##voke
##wash
##wave
1986
380
Audit
Benefits
Birds
Bodies
Broadcom
Brom
Cells
Chartered
Coal
Confident
Connect
Dalai
DirecTV
Douglas
EPA
Equity
Everett
Falling
Fiedler
Freescale
Friends
Gbagbo
Gore
HE
Hicks
IS
JPMorgan
Jefferson
Jermaine
Killer
Launched
Laurent
Leiter
Liberia
Lynn
Macedonia
Mad
Mahal
Materials
Max
Megson
MotoGP
Mystics
Newton
Olusegun
PAULO
Parties
Partnership
Peninsula
Penney
Pledges
Porter
Powers
Problem
Publisher
Rebound
Richmond
SAO
SMBs
Santini
Score
Shark
Shearer
Slams
Slows
Smaller
Spadea
Spring
Stays
Struggles
Survivors
Swatch
TWX
Tie
Twickenham
UP
Units
Wentworth
Westfield
Wife
Witness
Wolves
Yemeni
advertisements
asteroid
autumn
belt
broadcasters
champagne
chancellor
childhood
comparison
consulate
dashed
declares
discrimination
duel
elephants
elusive
expressing
fairly
floating
freely
fundamental
gradual
headscarves
insider
item
lease
lovers
math
niche
noise
onslaught
ouster
outing
passion
pit
pockets
postpone
probing
proposing
proven
proving
quitting
rainy
reception
reductions
retailing
routing
sentences
shakes
toppled
tricks
trips
unconstitutional
vacation
voices
vowing
wallets
weakening
windfall
wings
worrying
wreck
wrongdoing
##11
##BAY
##BURG
##Center
##DB
##UN
##VEN
##VING
##aki
##ased
##atify
##bian
##cre
##date
##ears
##eck
##ena
##ended
##enger
##ense
##fi
##fic
##flate
##gent
##gt
##hambers
##hon
##ided
##ignment
##imo
##ingham
##istan
##khtar
##lare
##lars
##lateral
##lause
##liferation
##lum
##mander
##matory
##mmer
##ole
##omp
##ond
##onents
##ooting
##page
##pill
##pins
##pling
##questrian
##racks
##raction
##rative
##ressive
##rific
##rift
##ru
##space
##ssed
##uba
##ubbing
##udged
##udo
##uess
##uffs
##uke
##ulations
AFX
Albanian
Alonzo
Alternative
Ambassador
Angry
Appliance
Applied
Baby
Bangladeshi
Blackberry
Blame
Brand
Brawl
Bromwich
CORRECTED
Capitol
Cemex
Colombo
Commons
Coup
Dent
Different
Draft
Dublin
Dunn
EDT
ENGLAND
Enrichment
FALLUJA
Fanning
Fastest
Fix
Freedom
Funding
Greeks
Havana
Hunter
Jiri
Junior
Kuwaiti
Letters
Leverkusen
Lopez
MBA
MCD
Machine
Mallorca
Mercedes
Message
Montana
Movement
Nader
Nashville
Neil
NetWare
Niger
OAO
Oh
Option
PALM
Parker
Parts
Peres
Petro
Pharmaceutical
Playoffs
Porsche
Province
Question
Reg
Retief
Revenge
Roll
SMART
SUNW
Schalke
Screen
Stakes
Stamford
Supplies
Suspends
ThinkPad
Toledo
Unlikely
Upgrade
Withdrawal
adjust
adultery
balls
bay
bloodshed
bogus
bonus
borders
brace
cheating
comet
commodities
conclude
connectivity
contingent
dealer
delight
demolition
derailed
dilemma
dire
dismiss
donations
elephant
emails
examined
exploring
faction
farewell
figured
fireworks
formation
foundation
frees
goodbye
guests
guided
harmful
headline
hijacked
hypersonic
improperly
incursion
installing
intrusion
inventor
involves
ivory
laps
lays
leak
lessons
liability
makeover
manner
memorable
methane
mulls
nod
obstacle
offences
ordeal
overturned
partially
particles
photographer
pickup
placing
pointers
presentation
proud
rescuers
resumption
rift
river
roaming
rowing
scrapped
seas
shine
snatched
soap
speeding
stoked
stricken
trafficking
transform
unearthed
verify
yes
##55
##72
##75
##HAT
##ICAN
##ITH
##Series
##TY
##West
##abies
##agnetic
##ammed
##arily
##ater
##aunts
##bps
##cept
##ctor
##curement
##dding
##ddle
##depressants
##dling
##eans
##ect
##ereal
##fined
##found
##friend
##gham
##hical
##icious
##ields
##ille
##ivate
##lude
##met
##minates
##mits
##mote
##nification
##nsistent
##nsive
##ocate
##ollow
##ort
##oultry
##person
##pet
##poken
##psy
##raphic
##rcenaries
##reasurer
##rillas
##rio
##scribing
##sman
##smen
##sons
##spective
##taken
##the
##tles
##tones
##toon
##uals
##ults
##unately
##unds
##unia
##urf
##vi
##vian
##while
##wi
##wimmer
##worth
Along
Badgers
Band
Barnes
Bennett
Bombers
Bronze
CANAVERAL
CAT
COLUMBUS
Capsules
Chennai
Communication
Connor
Criminal
DOJ
Doc
Froogle
Gear
Gilbert
Gloria
Hartford
Him
Imports
Infonet
JOHN
Julius
Kendall
Lakshmi
Matsui
Motorsport
Multiplex
Myers
Needed
Positive
Prisoners
Putnam
Quinn
Rallies
Ranking
Rape
Rebounds
Reilly
Reynolds
Self
Soaring
Soft
Solid
Staples
Sure
Swisscom
Terps
Threaten
Tight
UAIR
UMass
Unbeaten
Varitek
Veterans
Visual
WBC
Which
accomplished
addressed
adjusted
airliner
alcohol
archrival
armored
associate
babies
blogging
bubble
churches
classified
clerics
collaborate
concussion
conversation
crazy
credentials
crippled
cure
databases
defendants
denounced
deploying
designers
domination
evil
excessive
excitement
exercised
finest
fingers
forged
fray
generating
genome
girlfriend
grabbing
headache
hill
hills
imported
informal
inspection
integrates
involve
jolted
laying
liquidation
megapixel
metre
micro
minded
motorcycle
nets
optic
performing
pinch
poisoned
populations
praises
predecessor
prediction
predictions
pressured
pubs
purchasing
quell
rarely
realize
refund
repeal
reshuffle
residence
ringing
rocky
sand
savvy
showcase
slot
smell
snatch
sponsorship
stent
techniques
theater
thumb
trap
traveled
tunes
undisputed
unofficial
whatever
youngest
##88
##ATCH
##CS
##DC
##IAN
##LL
##LO
##OTA
##OWN
##Tel
##achers
##ader
##aga
##agan
##amine
##ards
##avigation
##bbing
##cat
##chedule
##chip
##cope
##core
##culation
##cut
##dd
##ddling
##dict
##enders
##ents
##eps
##fax
##ffer
##gie
##grove
##hall
##heated
##hips
##hooting
##hrugs
##ib
##icker
##imi
##ind
##iology
##iovascular
##ismantle
##itch
##lect
##lied
##lips
##lishing
##live
##lved
##million
##mine
##mnants
##monstrate
##mour
##mped
##nal
##nar
##onders
##overs
##pologizes
##ports
##pted
##quities
##ributing
##rising
##rix
##ronics
##rov
##rror
##ructive
##sive
##tant
##tie
##uantum
##ueen
##uffer
##ureate
##urled
##uster
##uties
##uz
##velations
##viour
##weet
##witch
##ype
07
265
5m
AND
Activity
AdWords
Ailing
Anthem
Banco
Bellhorn
BladeCenter
Breaking
Briefs
Clean
Click
Clive
Coffee
Cornell
Cutting
Display
Dominion
EC
Eagle
Earns
Ellis
Emissions
Engineers
Erik
Ethernet
Feb
Fights
Flushing
GeForce
Goss
HAVANA
HealthDay
Healthcare
Henrik
Holland
Identity
Indonesians
Isn
Italia
Joy
Learning
Limits
Lloyd
Longhorns
Manila
McNealy
Medtronic
Minneapolis
Neill
ORLEANS
Okla
Orton
PDF
Paulo
Pepsi
Please
Pounds
Putting
Ranked
Refugees
Rent
Retired
Ridge
Rocco
Rocks
Salt
Sarkozy
Sentenced
Smoltz
Statistics
Status
TONY
Trulli
Views
Ward
Warn
Worker
academy
admission
amendment
anonymity
ape
balanced
barring
beautiful
biological
bloodiest
bonuses
breed
brisk
browsing
bullet
cache
captures
cautioned
chanting
chaotic
chassis
circumstances
combining
consultant
covers
curbs
defied
departments
dolphins
dominates
doubling
elements
enthusiasm
excuse
execute
exile
expire
explicit
extremist
flexibility
flyby
forums
fractured
galaxy
gate
gloomy
governors
greenback
heroes
highlighted
hospitalized
ignore
implantable
implementing
imprisoned
indicators
injunction
intervene
invade
jockey
kicking
lifestyle
lining
literally
malls
manufactured
neighbouring
nerve
opinions
opposes
overwhelmingly
panic
pattern
permanently
pink
priorities
prone
proposes
publication
publicity
radioactive
raft
recruiting
relating
restricted
ruler
salaries
sensation
sheet
shell
smiling
speakers
stack
stinging
stone
suggestion
suspending
tainted
teacher
tenth
terminate
tissue
trailing
tricky
unnamed
upsets
venerable
void
washing
widening
##15
##5m
##CI
##News
##OK
##PE
##Port
##SU
##WO
##acity
##arden
##ared
##aro
##bide
##blo
##cams
##dal
##elo
##emption
##ential
##epper
##errible
##eted
##far
##gard
##gger
##ggins
##graph
##harm
##icked
##ieri
##ios
##keeper
##lares
##lass
##levant
##lk
##lout
##lty
##mir
##mond
##ncies
##not
##nown
##nseeded
##nz
##nzo
##ocation
##pack
##ploy
##ptive
##quent
##rairie
##rank
##rayer
##reek
##rilled
##rits
##rives
##shire
##si
##stand
##tastic
##tured
##uish
##urface
##uth
##victed
##write
##zen
166
ARLINGTON
Abdul
Aerospace
Aides
Alcatel
Alzheimer
Antarctica
Aragones
BJ
Bans
Barbara
Barber
Boris
CC
CNNfn
Cameroon
Chechens
Clement
Clough
Commentary
Communicator
Cycling
Declines
Discover
Edgar
Effect
Engines
Europes
Father
Feeley
Fresno
Further
Garnett
Geneva
Han
Haven
Hikes
Iraqs
Ivorian
KATHMANDU
KBR
KKD
Katerina
Kewell
Lincoln
Lockout
Lunar
Macy
Maradona
Marbury
Martinsville
Medicine
Messaging
Meteor
Milton
Mother
NLCS
Narrows
Newmont
Oliver
Ont
Optimization
Overseas
Paso
Peirsol
Relatives
Resolution
Resorts
Riggs
Rojo
Runs
Senators
Serious
Srinagar
Staley
Sting
Stops
Strategic
Swap
TXN
Tale
Tatiana
Thirty
Treaty
UNI
Uses
VPN
Wagner
Waltham
Webster
Wheaton
Yorke
Youzhny
Zemin
abandoning
adventure
anxious
artist
authorized
bidders
bleak
bn
boasts
bolstering
busiest
captives
catastrophe
cheers
commercials
confidential
corpses
cosmic
da
drunken
earning
entitled
exclusively
floated
gears
grenades
grocer
iBook
improbable
incredible
insects
inspire
kilometres
languages
lawmaker
lifetime
manufacture
miserable
morale
musicians
naming
nascent
nobr
nuke
organizing
overwhelmed
owed
pave
peaks
planetary
planted
populous
presents
presses
prince
probation
procedures
rebounding
reference
rhetoric
roaring
root
satisfied
screening
sensors
sharks
shore
slap
slated
sooner
steals
stream
subdued
takers
tentatively
thus
torrential
typically
unharmed
virtualization
volunteers
wishes
##AIN
##CR
##DM
##EX
##FB
##GC
##GLE
##ICH
##LP
##NK
##NO
##aled
##anic
##ascar
##asualty
##asures
##born
##cade
##ccuse
##con
##creational
##cruit
##dh
##dog
##ently
##etic
##feit
##fusing
##fusion
##hal
##hemistry
##hrink
##igo
##igrants
##inho
##instein
##ints
##isse
##lawed
##lch
##liation
##lings
##llah
##located
##lour
##loved
##mie
##mile
##ndemn
##nne
##ometer
##ourn
##owing
##pike
##press
##racing
##rat
##redo
##restrial
##rigo
##rip
##standing
##stated
##tainee
##tech
##track
##tros
##uash
##uiet
##uite
##unal
##union
##vance
##vative
##wards
##welve
##ycle
##ysis
##zation
149
536
AUSTRALIA
Ace
Anne
Announce
Approve
Arthritis
Baylor
Berkshire
Blow
Bowa
Brokerage
Byron
CAMP
Cardinal
Chinas
Curry
Deion
Disaster
Disease
Dome
Dravid
Driver
Epson
Eurozone
Failure
Filipino
Floridians
Freshman
G7
GONAIVES
Gamers
Genentech
Ghana
Glen
Gonaives
Guzman
Happy
Hart
Hedge
Historic
Ho
Holyfield
Illegal
Injuries
Joel
Jol
Kirk
Kyodo
Largest
Looms
Magna
Michelin
Moo
NIT
NVIDIA
Netsky
Odyssey
Offense
Ogden
Ole
Panasonic
Photoshop
Planning
Plummer
Portis
Prepare
Procter
Q2
Quest
Rest
Rhode
Rica
Riley
Rolen
Ronald
Rush
SRINAGAR
SUV
Seville
Signed
Spa
Swede
TOWNSHIP
Tayyip
Terdiman
Troop
Unveil
Valve
Welcome
Welsh
WinFS
Windies
Wine
Woodgate
Wounded
administrative
airing
alike
alleges
apes
assassinate
attracted
attracting
beverage
biometric
boot
brave
bump
cat
catalog
chants
charter
charts
circle
clothes
compelling
cope
creators
descended
deserves
discipline
drafted
dynamic
editing
endorse
eruption
examining
expired
explained
eyeing
fed
feeding
felony
fightback
financier
flags
gene
goodwill
graduate
greatly
gunpoint
heir
hell
hijack
horses
imposing
impoverished
intentions
intercepted
interviewed
legislators
literature
lobbying
lone
lover
loves
masses
mention
mentioned
mourners
nationalist
obstacles
potent
prized
proper
provision
publish
quakes
rebuilding
reflects
regularly
reigning
responding
reviewed
revision
rip
roadmap
roles
sacrifice
seasonal
shelf
skeptical
slumping
smartphones
smuggling
sole
span
spilled
stall
steer
streaming
surf
surrendered
sustain
tendered
tiebreaking
tightens
ton
trash
truckers
unacceptable
unite
vault
wiped
##73
##AD
##AND
##EH
##Ex
##FE
##LI
##ML
##MM
##OP
##RTS
##SG
##TING
##abitat
##aco
##alaria
##alware
##anks
##ark
##arry
##asy
##auts
##averick
##bbled
##brew
##cated
##cence
##chet
##clusion
##conomist
##coring
##cots
##cramble
##cuffle
##dered
##dous
##eal
##eat
##eel
##emed
##emic
##ending
##euver
##ferring
##fficiency
##fight
##fill
##finery
##gon
##green
##hake
##hire
##iginal
##ima
##imated
##ipulation
##isk
##itate
##kar
##kowski
##lap
##lax
##layer
##letcher
##lorious
##lough
##nanimous
##nant
##neak
##nverged
##oda
##odus
##oint
##osh
##pit
##rad
##raps
##rash
##rassment
##rbitrator
##reads
##roken
##ross
##shes
##sistance
##sk
##surer
##sures
##tative
##tin
##tities
##ubbed
##uffed
##ulling
##unsel
##upremacy
##urcharge
##valuation
##vened
##viving
##xiety
129
1993
AJ
Advanta
Ahern
Albion
Americas
Ankle
Atlas
Attendants
Basayev
Bit
Blames
CEOs
CIO
CTIA
Caution
Cloning
Considering
Consortium
Corps
Courtney
Crackdown
Curtis
DHAKA
Dangerous
Delivers
Discount
Downloads
ESA
Elan
Expect
Filing
Fincke
Fined
Foot
GTA
HDTV
Hampton
Heels
Highlights
Hyatt
ISP
Jeddah
Kan
Karmazin
Kristen
Lady
Larsson
Leicester
MTV
Maddux
Marriage
Master
McLaren
Montenegro
Morrison
Mukesh
Murray
Mussina
Nationwide
Nomar
Nova
Oprah
Patients
Percival
Plea
Pollution
Pool
Protestant
Prudential
Ramsey
Russell
Saboteurs
Sarah
Shea
Showdown
Sihamoni
Slump
Sumitomo
Taba
Tree
Turnpike
Walk
Weaker
Wendy
Worry
Yale
ZURICH
Zee
acted
actual
adapt
anybody
assurance
bats
bidder
bloggers
bounty
bowed
broadly
brokered
campaigners
candy
cholesterol
communicate
confront
darkness
defined
defy
dent
destination
dips
doses
embassies
enormous
environmentalists
expelled
explodes
ferry
flooded
foods
genuine
guidelines
happening
holdout
inauguration
indictment
infamous
intelligent
jeopardy
jungle
knife
lake
libel
mega
mercy
midsession
millionaire
misconduct
mount
obstruction
pen
plague
projections
prospective
reclaim
refuge
reopened
rider
router
sacks
sad
sensational
shirts
sorts
splash
stormy
supercomputers
surfing
surveys
tepid
transistor
victorious
##BORO
##EG
##IRES
##In
##OI
##UM
##VO
##abloid
##alyst
##ancy
##anny
##arin
##arity
##ashing
##asty
##azen
##battle
##bbers
##bute
##carf
##ciary
##cist
##come
##culated
##cur
##ducted
##ead
##ectoral
##elestial
##endum
##ennial
##ermen
##erved
##erver
##eur
##firmed
##focus
##ganda
##gated
##har
##hem
##hibition
##hishers
##hou
##ictionary
##icz
##imation
##inge
##inging
##keepers
##keptics
##lair
##leton
##lift
##ligion
##lops
##mam
##mbled
##mia
##mor
##mous
##name
##nor
##now
##nroe
##ntry
##ods
##ody
##ofing
##oids
##okes
##olation
##onte
##ooted
##oted
##ounce
##part
##passing
##pert
##pher
##pie
##pied
##pm
##ragic
##rchants
##reet
##rooms
##rustrating
##sboro
##scal
##servations
##sions
##sit
##tern
##trating
##tride
##trom
##trusted
##urning
##utter
##vereignty
##von
109
200m
3M
8bn
AUGUST
AWE
Accord
Activists
Amir
Arabiya
Arm
Artisan
Automakers
Auxerre
Available
BALTIMORE
BASE
Bear
Become
BoSox
Brunei
Brunell
CFL
COO
Choice
Complete
Cow
Criticizes
Doom
Doubts
ET
Employment
Epstein
Erickson
Eyed
Fate
Fergie
Filderstadt
Flex
GEORGE
Geico
Germain
Getty
Gibernau
Glasgow
GlaxoSmithKline
Harrah
Holidays
Initial
Istanbul
Jong
Juniper
Kenny
Kirkuk
Lahoud
Language
Larkin
Leander
Leaving
Leslie
Marseille
Model
Non
Norwich
OUT
Ordered
PARK
Panathinaikos
Rather
Reforms
Relay
Richards
Scream
Semifinals
Seventh
Simulator
Single
Sluman
SpA
Stata
Stefan
Struggle
Survives
Technical
Traders
Trek
Trent
Trouble
True
Upbeat
Very
Webb
abortion
adopting
advertisers
ages
airstrike
angered
assistants
automation
automobile
avian
background
barriers
belonged
belonging
bike
booking
briefs
broadcasts
burgeoning
carefully
chronic
commitments
compatibility
conversion
cry
curtain
dampen
daughters
defect
deliveries
deserter
diabetes
digging
discovering
disgraced
distant
donors
downed
establishing
establishment
fanfare
ferocious
fitness
flared
fruit
gallery
gamble
geared
gradually
granting
grants
grievance
hacking
halting
immunity
inadequate
indications
instruments
intensity
interceptions
lit
loyalty
metals
netted
organisers
outrage
overseeing
parking
passports
penny
populated
prizes
proceeds
pumped
racked
realized
reassure
recognized
registry
reprieve
resist
restated
restrict
rode
scans
scrapping
shade
shaping
sharers
signature
sponsor
spreads
sticking
sticks
stirring
strict
strongholds
suburb
summoned
taxpayers
thrust
tighter
traction
trader
trans
turnout
vacancy
vacuum
venues
wealthy
whistle
worthy
##0s
##AF
##ANA
##AST
##CKS
##ELD
##EP
##FAX
##FC
##GH
##II
##INS
##MER
##OA
##Secure
##VA
##VC
##abbed
##acker
##acks
##afa
##aint
##arded
##avier
##bacle
##bek
##borating
##bservations
##ceives
##cellent
##clerosis
##crime
##cure
##dators
##datory
##ewing
##fineries
##flow
##gned
##gnment
##hame
##harmacies
##heads
##heating
##hores
##hrashing
##hu
##iani
##iators
##icic
##icipating
##ident
##ifle
##igabit
##inx
##ishes
##isled
##istraction
##izens
##kate
##lake
##lcoming
##lina
##linic
##llers
##loat
##logged
##lve
##member
##more
##nable
##ndent
##ngo
##nied
##nowledge
##nowned
##oi
##olas
##olcanic
##olt
##olved
##omo
##onder
##onymous
##oops
##oskie
##pc
##pecified
##perm
##phones
##pier
##pment
##ponents
##quate
##rague
##rapy
##reak
##reatment
##ressed
##ricing
##ridge
##rincipal
##ringed
##rippling
##riticize
##rities
##roscopic
##rouse
##roves
##rp
##rying
##sembling
##serving
##shop
##sider
##tating
##tator
##thrax
##tile
##tings
##tist
##uchi
##ucing
##udy
##uilder
##ulled
##ums
##unting
##upplied
##uses
##varez
##vity
##walks
##wamped
##wartz
##windling
1Q
ALEXANDRIA
Accepts
Alpine
BREAKING
Backup
Ballot
Benefit
Biotech
BitTorrent
Blade
Blood
Boom
Bounty
Boys
Broker
Bulgaria
CL
Californians
Citibank
Column
Controls
Customer
Cyberonics
Daly
Derby
Desperate
Direct
Dover
Eugene
Exporters
Fake
Families
Fenerbahce
Fiji
Foodland
Gerald
Governments
Hispanic
Hotspur
Imperial
Iron
JPM
Jarno
Keyhole
Keys
Klinsmann
LAN
LB
Legg
Leonid
Li
Merge
Mia
Mild
Mohammed
Montgomery
Monti
Moroccan
Multi
NHS
Nadal
Noah
Norton
Olympia
Payments
Pitt
Popular
Professor
Promises
RBIs
RMC
ROUNDUP
Raul
Replace
Rim
Roberto
Rs
Ruth
SCH
Shining
Sinks
Solana
Sought
Speculation
Supports
Swimming
TSB
Terms
Twin
Twinkies
Uruguay
VOIP
Vision
Vizquel
WWF
Waiting
Watchdog
WiMAX
Wilkins
Zero
accession
accurate
addressing
aerial
airstrikes
alien
ancestors
assume
bang
beset
bottle
brushed
bye
cats
colony
comfortably
compatriot
concludes
conservationists
considerable
conspiring
coral
corrupt
cousin
daylight
decapitated
delta
demonstrations
devoted
diagnosed
diplomacy
docked
drilling
elaborate
emotions
endured
enjoys
et
experiences
fame
favorable
favourites
feelings
firmer
foothold
forecasting
fury
glow
gravity
gunships
guru
hadn
halts
hamper
hotspots
humanity
icy
infection
invite
irregularities
kidnappings
locks
mapping
monkey
motivated
mountainous
multicore
neighbours
neutral
newer
nominated
notables
notified
payout
pigs
plummeted
plunging
probable
prompt
psychological
purported
ranges
reactor
reduces
removal
robbed
sacking
sacred
salmon
sensor
shifted
shocking
sits
skating
skid
slashes
snapping
sons
specialists
spies
spotlights
spray
stabbed
stave
stockpile
subsidiaries
tallest
tankers
tarnished
tee
territorial
thrilled
thriller
tightly
toe
topple
transformation
transistors
travels
ubiquitous
undecided
utilities
vessel
wasted
wisdom
zoo
##!
##"
###
##$
##&
##'
##(
##)
##*
##,
##-
##.
##/
##:
##;
##=
##?
##\
##_
