[PAD]
[UNK]
!
"
#
$
&
'
(
)
*
,
-
.
/
0
1
2
3
4
5
6
7
8
9
:
;
=
?
\
_
a
b
c
d
e
f
g
h
i
j
k
l
m
n
o
p
q
r
s
t
u
v
w
x
y
z
the
to
of
in
and
on
for
39
that
with
as
its
at
said
is
it
by
has
new
an
##s
from
reuters
his
will
was
after
have
be
their
two
are
us
over
quot
year
he
first
ap
but
gt
lt
this
more
monday
wednesday
tuesday
one
world
up
company
thursday
inc
friday
than
they
last
yesterday
york
against
about
who
not
were
into
out
three
president
been
had
week
million
corp
oil
##ing
when
sunday
time
would
united
which
game
government
today
people
years
could
no
##ed
group
second
iraq
com
percent
saturday
software
night
next
all
third
season
or
prices
day
security
fullquote
microsoft
quarter
team
off
stocks
internet
minister
announced
some
state
four
back
international
washington
high
2004
may
billion
most
market
can
news
former
10
officials
top
business
says
states
other
win
month
if
city
##d
victory
you
country
record
end
before
european
open
technology
largest
league
co
just
service
reported
american
computer
sales
afp
home
down
what
federal
000
five
killed
##e
national
according
prime
expected
bush
made
china
plans
research
major
while
ticker
network
target
maker
now
court
during
least
##a
online
between
chief
there
http
companies
london
##ly
won
under
them
san
long
www
british
##er
set
lead
cup
deal
final
series
href
bank
another
search
south
make
based
##y
report
since
investor
her
take
police
giant
old
industry
space
games
john
coach
help
leader
being
sports
through
left
music
shares
election
run
web
him
services
way
##t
agreed
so
say
only
iraqi
red
because
hit
baghdad
system
early
military
mobile
six
aspx
quickinfo
months
profit
like
general
##r
north
days
##n
india
union
al
get
rose
war
including
many
biggest
still
ago
even
japan
executive
half
big
##o
talks
strong
players
official
palestinian
wireless
trade
plan
##i
google
bid
data
round
latest
phone
held
higher
olympic
much
start
released
points
stock
growth
move
part
boston
nuclear
athens
earnings
australia
test
11
west
20
how
nation
dollar
england
investors
where
fourth
called
global
ibm
head
public
play
users
weeks
face
israeli
nearly
presidential
street
nations
seven
football
economic
windows
found
air
man
financial
francisco
ahead
despite
firm
cut
free
gold
systems
championship
took
amp
around
foreign
fell
go
12
also
russian
number
should
near
any
loss
leading
right
used
forces
past
reports
use
following
sox
economy
do
america
troops
buy
30
agency
quote
chicago
work
key
attack
drug
apple
pay
tokyo
release
led
car
commission
here
36
share
15
both
october
per
profile
gaza
version
press
september
late
uk
beat
video
media
##l
killing
player
your
men
price
rival
2005
europe
best
region
put
several
capital
well
again
power
products
wall
workers
source
contract
offer
close
russia
agreement
australian
such
recent
french
##m
support
conference
might
program
making
customers
demand
leaders
scientists
oracle
whether
17
##es
party
title
un
crude
digital
she
attacks
champion
scored
department
jobs
consumer
14
manager
18
lower
michael
house
center
eight
november
life
energy
florida
northern
saying
japanese
line
los
running
southern
we
st
told
champions
low
little
management
political
pakistan
campaign
meeting
without
field
peace
angeles
due
hurricane
university
decision
away
launched
place
school
taking
central
intel
good
canadian
##ers
winning
california
race
results
13
star
office
across
using
army
board
interest
16
25
britain
give
become
net
straight
weekend
morning
chairman
future
peoplesoft
secretary
defense
information
50
site
100
bomb
match
shot
quarterly
costs
launch
re
nasa
houston
israel
lost
sun
women
##h
france
linux
charges
communications
case
iran
club
elections
history
##on
keep
oct
operating
health
showed
return
better
did
own
same
times
yankees
warned
among
few
posted
increase
signed
death
cost
senior
show
pc
television
job
mark
bill
trading
korea
militants
money
24
kerry
stores
those
exchange
almost
earlier
grand
ever
force
come
baseball
small
david
east
rise
stadium
font
fans
mail
chip
accused
less
reserve
19
began
toronto
nine
ltd
action
going
association
likely
texas
nov
came
thousands
real
behind
ended
helped
post
anti
barrel
opening
administration
full
offering
battle
got
cash
possible
judge
21
control
amid
died
rate
sell
trial
##al
august
division
growing
arafat
too
already
point
darfur
germany
##k
access
canada
yet
paris
members
food
medal
term
tax
afghanistan
hopes
performance
hours
bankruptcy
countries
##g
far
once
white
fall
sept
career
revenue
151
injured
networks
rates
trying
western
store
williams
##u
production
airlines
product
gave
efforts
study
see
chinese
within
authorities
soon
violence
yards
computers
german
george
corporate
hard
look
analysts
soldiers
human
local
radio
sudan
speed
hostage
opposition
server
step
takeover
change
giants
personal
main
paul
starting
popular
competition
engine
outside
fund
quarterback
aimed
each
markets
reached
retailer
fire
african
investment
jones
law
size
short
until
concerns
strike
continued
known
phones
failed
devices
tour
vote
airline
enough
gas
yasser
tech
then
others
taken
##an
begin
development
profits
sony
dead
looking
manchester
filed
weapons
bay
council
miami
seattle
fight
insurance
reach
selling
stop
americans
unit
beijing
designed
teams
##p
desktop
raised
large
##c
cell
africa
side
electronics
executives
great
meet
olympics
indian
consumers
find
500
coast
##0
went
legal
spain
effort
must
hold
moscow
operations
rebel
green
##th
fuel
cp
finally
further
fighting
powerful
tony
coming
##man
children
researchers
area
level
working
family
file
spending
call
euro
madrid
atlanta
rights
yahoo
need
fired
toward
claims
##x
annual
station
forecast
getting
rally
23
businesses
continue
securities
allow
never
private
arrested
blue
don
goal
tv
list
bowl
heart
every
cbs
rebels
labor
nfl
provide
pressure
27
college
democratic
visit
planned
basketball
calif
italian
holiday
investigation
drive
drop
name
sent
regulators
available
boost
hundreds
survey
28
##en
charged
current
dollars
##le
attempt
officer
eu
named
22
expectations
muslim
policy
rising
problems
detroit
ipod
asked
philadelphia
suspected
employees
approved
nasdaq
sold
december
park
ceo
aid
decided
gains
rivals
supply
flight
islamic
retail
unveiled
arsenal
worth
confirmed
tournament
strip
turned
sale
seen
equipment
louis
injury
claimed
order
##rs
technologies
holding
ruling
sign
town
later
winter
increased
island
##us
giving
terrorism
try
color
moved
staff
guard
spokesman
stake
##in
want
fresh
generation
though
40
fifth
mike
opened
above
cent
average
threat
inning
received
captain
chance
double
hospital
##b
touchdown
added
ranked
2006
asia
crisis
steve
applications
process
2003
black
suicide
young
##ment
runs
turn
earth
##ic
200
building
ending
lines
airways
enterprise
finance
medical
playing
given
aug
singapore
storage
groups
wants
build
does
advanced
having
ready
bring
experts
outlook
charge
missing
alleged
body
asian
defeat
ground
sites
card
let
related
challenge
summer
##2
our
risk
sources
water
able
fears
middle
militant
started
##ting
millions
ivan
ruled
very
blair
focus
create
event
forward
hope
##z
calls
director
prison
26
##te
minnesota
minutes
##ia
organization
whose
accounting
position
lawsuit
storm
##5
played
safety
cricket
know
losses
proposed
single
spam
didn
january
soccer
warning
fraud
losing
special
along
drugs
##1
wounded
range
sharon
closer
ireland
pro
satellite
urged
committee
cuts
entertainment
issue
threatened
##ted
mission
project
these
##ling
greece
hand
interim
mw
leave
##able
became
returned
statement
clear
chips
debt
issues
johnson
leaving
citing
browser
congress
dow
evidence
recently
dutch
forced
initial
insurgents
carrier
dell
offered
track
ms
although
july
commercial
homes
application
beating
dec
provider
comes
push
course
nyse
seeking
afghan
device
jose
newspaper
care
credit
offensive
airport
potential
italy
member
camp
light
35
dropped
huge
##7
##3
29
think
why
xp
palestinians
singh
border
met
virginia
ban
rejected
sans
standard
road
ryder
supplies
woman
consecutive
nba
wanted
wide
##or
ariel
electronic
##ry
aircraft
heavy
important
highest
terror
eastern
najaf
oakland
thought
acquisition
closed
justice
role
terrorist
400
claim
de
miss
brought
travel
golf
kept
ministry
zealand
remain
sending
dvd
stage
davis
scheduled
total
##re
brown
rocket
shows
built
result
chain
developed
issued
my
kidnapped
prize
afternoon
formula
rules
voters
front
hostile
tonight
666666
arial
bad
futures
helvetica
moon
serif
verdana
remains
send
slightly
##ion
illegal
instead
striker
threw
attorney
avoid
host
makes
parliament
fast
spanish
published
rest
sharply
fallujah
prix
shopping
break
code
debate
firms
cleric
##9
##ge
doesn
memory
negotiations
expects
settle
vice
31
acquire
struck
cisco
explosion
update
yukos
dallas
merger
saw
##8
hoping
previous
##f
##is
supreme
winner
kabul
scandal
suspended
candidate
ve
below
confidence
figures
protection
caused
features
needed
boeing
classic
cleveland
pace
save
question
appeared
deficit
delta
content
controversial
form
buying
carolina
concern
decades
develop
himself
innings
republican
servers
spacecraft
longer
raise
decline
movie
revealed
tiger
worldwide
##ies
advertising
hockey
howard
kong
proposal
together
##ation
##v
backed
motor
hong
operation
planning
premier
sector
abu
banks
calling
dispute
mexico
shareholders
broadband
delhi
programs
ran
jerusalem
plc
processor
##4
disney
james
pittsburgh
touchdowns
base
introduced
makers
showing
##ie
machines
pass
pulled
tennis
woods
cardinals
sydney
##6
60
changes
joint
operator
poor
probably
reduce
something
streak
beginning
brazil
decade
problem
hollywood
kansas
slow
spent
##less
chelsea
science
things
training
draw
itself
vladimir
arrived
funds
mart
parts
passed
wal
associated
helping
korean
roger
secure
virus
intelligence
massive
remained
watch
jason
stay
##ts
astros
marketing
mortgage
sharing
worst
yard
producer
tom
extended
cable
tim
troubled
yen
##ch
##el
##ton
ball
gain
session
sprint
##est
period
practice
struggling
believe
broke
seconds
success
auto
mass
playoff
qaeda
serious
takes
weather
civil
tehran
domestic
mid
armed
minute
##st
hour
pilots
semiconductor
##ive
nokia
taiwan
300
colin
corporation
jets
moving
senate
facing
nextel
raising
announce
christmas
pcs
different
film
looks
march
room
spot
indonesia
join
uranium
arab
goals
improve
talk
wounding
community
industrial
protect
century
inflation
microsystems
miles
sharp
exploded
isn
ohio
ordered
settlement
signs
worries
baltimore
holdings
linked
masters
michigan
terms
##ra
2002
amd
putin
##ness
telephone
manufacturing
province
row
2000
damage
impact
mac
owner
complete
developing
fiscal
paid
plant
stand
continues
plane
rich
appeal
diego
ford
jump
needs
probe
income
pacific
patriots
##ble
boss
falling
king
republic
sanctions
suffered
conflict
cutting
setting
##led
bonds
pitcher
sport
hewlett
packard
trophy
washingtonpost
guilty
platform
sadr
announcement
discovered
recovery
rule
breaking
download
live
martin
pakistani
##ter
inside
warner
wild
finals
appears
arizona
hotel
surprise
thailand
tools
2001
debut
racing
rain
tomorrow
tried
approval
daily
easy
june
plus
questions
ad
assault
richard
twice
voting
highs
levels
strategy
becoming
telecommunications
tough
allowed
embassy
express
numbers
themselves
traders
venture
panel
stewart
turkey
filing
hits
montreal
residents
surgery
thanks
check
defending
defensive
expand
kashmir
knee
passes
witnesses
fla
positive
previously
itunes
nigeria
offers
value
benefits
ll
agent
am
##ne
auction
critical
hot
hurt
lawsuits
nothing
relief
royal
##ce
areas
cause
completed
deadly
bit
message
often
story
##ity
##w
grew
looked
replace
significant
species
act
criminal
egypt
english
faces
ministers
missile
msn
seventh
zone
64
banking
consider
irish
pm
really
##se
handed
heating
jumped
non
peer
review
allegations
blow
purchase
anaheim
budget
commerce
nhl
sixth
##ful
colorado
done
awaited
brussels
common
familiar
joined
progress
qualifying
apparently
majority
mars
motors
seems
alan
block
image
screen
sen
class
hands
independent
par
sure
##il
##nt
80
foot
tool
##et
assets
doctors
trip
bombing
dolphins
hostages
##ke
andy
considering
finished
jakarta
lot
retailers
saddam
sea
70
adding
currency
ninth
49
alliance
cars
karzai
missed
powell
testing
41
created
district
thing
delayed
hamid
homer
living
owners
prepared
toll
bought
declared
denied
display
estimates
include
jeff
matter
output
package
saudi
ten
##ar
atomic
bringing
computing
core
details
direct
documents
driver
index
interview
msft
utah
alex
students
treasury
expansion
indianapolis
person
upcoming
voted
watchdog
award
chris
flat
protest
successful
45
commissioner
eighth
gulf
records
traffic
crowd
disease
lift
magazine
prosecutors
quickly
resolution
add
atlantic
defence
firefox
opener
sudanese
##na
customer
demands
historic
jail
managers
os
partners
regional
rookie
shiite
denver
explorer
liverpool
orders
weak
chart
eagles
fastest
headed
portable
allows
arms
blast
cents
climate
crashed
crew
super
victims
voice
barry
carrying
design
expect
includes
preparing
robert
55
cancer
crucial
offense
sought
##ier
boosted
conditions
entered
finding
flu
involved
kevin
land
poll
pre
prince
receiver
strength
associates
begun
certain
changed
edition
emergency
handheld
planet
speculation
wake
convention
info
mutual
putting
reportedly
summit
arm
dozens
islamabad
rangers
stars
##it
##ur
antitrust
bombs
coalition
democracy
notre
regular
retirement
tie
view
dame
developer
hurricanes
opec
surged
threats
allegedly
believed
believes
blood
goods
hussein
natural
pack
rather
soldier
activity
carlos
crash
finish
format
immediately
mets
promised
standards
treatment
48
always
exports
model
movies
nascar
score
ag
age
faster
pension
priority
tampa
turning
##ized
deadline
enrichment
hills
improved
murder
scoring
tennessee
ways
admitted
cubs
ebay
terrorists
activities
charles
cincinnati
pair
##ine
##um
agencies
craig
draft
enron
greek
owned
resigned
sir
tests
vehicle
vioxx
##co
bodies
continuing
declined
heat
joe
merck
property
ukraine
34
candidates
discuss
gets
hamas
ivory
nationwide
shut
warming
angels
anticipated
championships
delay
flights
mozilla
via
date
newsfactor
remaining
wales
doing
donald
files
gone
indiana
rare
remote
wasn
widely
word
90
closing
deep
georgia
hardware
lawyers
newly
smaller
tight
##land
forecasts
indonesian
pushed
veteran
75
hat
placed
reason
wrong
extra
hole
increasingly
overnight
##id
br
cards
county
decide
nintendo
opportunity
supporters
unions
attention
cabinet
directors
me
stroke
investigating
micro
sbc
analyst
disappointing
driven
edge
smith
spend
spyware
threatening
upset
vowed
airbus
ask
nl
photo
polls
traditional
##ous
acquired
gunmen
journal
parties
picture
separate
evening
officers
patent
pt
stronger
##ck
claiming
hp
jhtml
lose
motion
musharraf
names
novell
partnership
rallied
seek
unless
##ve
beyond
book
haiti
increasing
overall
renewed
response
seoul
tiny
upgrade
wayne
advantage
berlin
brian
financequotelookup
infotype
ottawa
qcat
qtype
shooting
sym
withdraw
bears
images
premiership
ray
rock
speech
wins
authority
broken
cnn
matches
oklahoma
pedro
similar
vehicles
38
allowing
cities
gary
van
defeated
edged
preliminary
wife
##ent
approach
jet
pga
request
smart
son
era
java
launching
professional
steel
expos
faced
kill
larry
nikkei
options
overtime
seed
ties
600
bryant
cross
greater
instant
keeping
providers
situation
vienna
walt
expressed
heading
jr
officially
pull
reporting
ability
advance
compete
falluja
holy
radical
resume
sex
wave
##men
brand
comments
dodgers
eased
eye
hearing
jacques
martinez
parent
pick
reaching
shipping
technical
unbeaten
32
emerged
entire
iraqis
prisoners
rebounds
semi
surge
virgin
33
capacity
captured
cingular
deliver
deputy
extend
jewish
means
mixed
pervez
prevent
telecom
withdrawal
##ns
books
drove
effect
electric
links
soaring
targets
##as
arrest
el
feature
hall
halt
laws
marathon
milan
shuttle
sides
##ping
doubled
jan
partner
scotland
songs
style
train
website
carry
difficult
la
recording
secret
solid
streets
bell
copyright
limited
manning
manufacturer
seeded
65
allawi
appeals
bills
disaster
earthquake
jury
kind
moves
option
perhaps
taliban
votes
##line
announcing
beach
bin
camera
crimes
events
involving
leadership
mr
protocol
refused
sri
suit
trouble
creating
governments
schedule
##nce
attacked
newcastle
philippines
ron
swiss
violent
broadcast
dominated
flash
goes
internal
ongoing
passenger
patients
picked
ship
user
##ize
appear
braves
caught
centre
cold
dozen
either
federer
self
stem
traded
##de
annan
aol
fine
legislation
ranking
scott
verizon
##field
accept
auburn
beta
database
fi
frank
insisted
machine
massachusetts
processors
quite
scores
##ner
agree
construction
cuba
doping
hitting
idea
jersey
resources
scientific
solution
throughout
chances
columbia
considered
dramatic
piracy
possibly
refugee
relations
vendor
##ian
##ors
driving
everything
fact
failing
founder
messaging
tackle
bus
channel
franchise
lawmakers
messages
theft
##ary
##ist
april
bird
governor
housing
labour
lives
restructuring
seized
sets
social
words
##at
##ated
amazon
choice
kofi
lifted
onto
redskins
##age
##ant
##up
abuse
address
anyone
bigley
deals
gained
lee
peter
thomas
vijay
visiting
wi
bangladesh
child
doubt
highly
injuring
laden
networking
pacers
saturn
schools
soft
##os
account
seasons
##ging
##son
##ty
drew
freed
pitch
sued
wait
150
800
chase
environmental
however
improving
lows
managed
provided
read
shock
vendors
##ped
##ps
##ri
54
ali
egyptian
grow
orlando
postseason
pushing
sentenced
signing
usa
##ding
bobby
civilians
climbed
elected
fellow
page
watched
##ll
antonio
boy
communist
failure
forest
ice
port
subscribers
##ta
bob
criticism
developers
foundation
frances
heard
monetary
pledged
viruses
##ate
enter
explosives
gates
greenspan
orleans
passengers
roddick
solar
winds
##ley
anything
bottom
connection
dismissed
dual
ease
figure
joining
offset
perfect
samsung
seemed
shift
square
stepped
tigers
waiting
##am
au
clash
lack
marsh
pleaded
practices
receive
toshiba
twins
unlikely
fighters
stopped
titan
towards
typhoon
works
42
carried
closely
jim
measures
paying
pitched
potentially
predicted
rockets
##ally
anniversary
brazilian
dangerous
described
embattled
ex
fannie
injuries
produced
southeast
zimbabwe
250
additional
bombings
broker
fought
leg
lineup
martha
studios
torn
va
vs
argentina
everyone
expanding
increases
mae
opponents
planes
preseason
slipped
suffering
worm
##ged
51
banned
bbc
born
ca
convicted
gives
ken
lewis
quit
##tion
flying
friendly
hewitt
largely
mining
returning
uefa
units
environment
lawyer
models
rome
begins
cover
delivered
education
gordon
manufacturers
matt
ravens
##dy
assistant
barcelona
cassini
corruption
equity
fields
graphics
headquarters
infrastructure
institute
inventories
iranian
knew
poised
providing
safe
spread
##ey
##way
appointed
fear
friends
hear
jackson
love
mine
multi
quality
schilling
status
tell
accounts
apparent
ceremony
emerging
jack
kobe
militia
morgan
steps
taxes
arthritis
identity
journalists
kidnappers
lanka
patch
recall
representatives
rescue
shots
spring
syria
##ring
catch
collapse
competitive
desert
earned
engineers
introduce
jean
language
lay
resignation
sky
talking
writes
44
bigger
compared
drives
ii
industries
netherlands
playoffs
responsible
suggested
tied
universal
43
53
cannot
diplomats
insurgent
moment
pictures
reduced
47
amount
andre
deaths
fly
heavyweight
produce
strategic
##ma
67
alive
beckham
curt
demanding
easier
fair
ill
illegally
landmark
larger
las
maria
osama
possibility
serving
squad
successfully
aside
athletics
benefit
circuit
contracts
critics
extension
focused
lake
meter
prove
sunni
suspects
targeting
agents
cameras
currently
estimated
expanded
medals
nigerian
offices
resolve
seem
serve
shrine
steelers
territory
turkish
wind
bomber
causing
cbc
coaches
combat
couldn
coup
couple
drivers
greatest
helicopter
investigators
lowest
northeast
programme
retired
rolled
steady
vietnam
aren
blockbuster
brokerage
clashes
comeback
ip
reform
ring
subsidiary
supercomputer
weaker
66
astronauts
competitors
euros
gaming
organizations
qualifier
rooney
vegas
##ise
##ism
##les
37
ankle
assembly
caribbean
colts
controlled
father
fish
hamm
maybe
petroleum
presence
privately
semifinals
shell
slam
solutions
starts
truck
versions
accepted
bankrupt
distance
distribution
effective
feel
followed
mclennan
mean
projects
scale
silicon
struggled
worker
52
accusing
adrian
bitter
chechen
individual
justin
mind
multiple
navy
packers
sound
suggests
surface
venezuela
##ide
chiefs
especially
famous
foods
holes
jeanne
pistons
reasons
wenger
anthony
clothing
congo
democrats
miller
mount
phoenix
plays
positions
publisher
successor
unprecedented
virtual
700
austria
bar
brands
charlotte
dream
email
fees
malaysia
maryland
overseas
parents
worried
##da
##ds
answer
band
disc
ensure
hired
included
jordan
lleyton
meetings
ousted
rushed
string
table
worlds
##la
##rd
attempts
box
broad
cast
edwards
mostly
nobel
photos
tens
tropical
watching
writer
##ning
carter
cool
hackers
lions
seat
slide
stephen
sweep
##ro
arabia
client
favorite
formally
homered
mayor
nortel
plot
regulatory
shanghai
titles
##me
andrew
blew
confident
eyes
fierce
islands
kick
paper
qaida
separatist
walk
##ca
amsterdam
ben
boosting
brother
capable
coca
experience
hassan
idg
mariners
movement
mp3
promises
##ded
cooperation
felt
hotels
infringement
link
producing
shi
##ger
aboard
ads
blamed
cases
cleared
factory
gathered
golden
marines
marked
measure
ocean
prospects
returns
ryan
solaris
supplier
task
trust
##ks
arena
boxing
capsule
discovery
follow
girl
manmohan
plants
playstation
roundup
sentiment
showdown
subject
valley
vodafone
controversy
copies
entry
gasoline
heads
homeland
immediate
invasion
kenneth
motorola
raid
shoppers
spitzer
##ard
busy
condition
flagship
initiative
meters
palm
religious
sweden
86
engineering
ipo
margaret
phelps
reporters
republicans
struggle
sweeping
targeted
zarqawi
ancient
awarded
backing
battered
brain
commander
democrat
fan
ferguson
financing
knows
powered
shareholder
standing
suspension
##ng
##ny
99
arsene
beslan
complex
determine
employee
haven
ite
lebanon
monthly
mosque
mountain
prepare
quick
scientist
sized
spammers
sparked
studio
suite
warnings
##ze
46
alternative
appearance
cola
effects
engines
extending
jailed
landing
materials
ny
referendum
shipments
whole
wickets
85
adobe
capabilities
chile
feet
muslims
offerings
orcl
producers
reforms
relationship
river
snow
someone
stations
stronghold
##ure
04
3g
astronomers
barely
carriers
citigroup
feared
fed
illinois
kim
orange
shoulder
shown
sluggish
trafford
capture
charley
citizens
dick
espn
facility
fix
infoworld
inquiry
nets
provides
psft
reading
revenues
unexpected
##ating
##ka
##ms
##sh
bridge
cairo
casino
downloads
existing
explosions
forum
khartoum
lowered
munich
pain
pop
simple
transfer
trend
wire
##ct
##sa
browns
convoy
description
discount
disputed
estate
harry
id
operators
pharmaceutical
sears
silver
sometimes
teammates
widespread
combined
connecticut
families
hill
letter
luxury
manage
memphis
opponent
population
pounds
proved
sven
true
unexpectedly
worked
xbox
##sing
10th
coaching
concerned
consortium
crime
delivery
easily
floods
happy
holds
imposed
interior
kmart
membership
orbit
payment
payments
pitching
responsibility
searching
uses
utility
1999
allen
buffalo
hoped
knocked
lockout
mosul
notebook
plenty
politics
promise
stands
vaccine
##bn
##ned
analysis
bangalore
cellular
committed
dan
dominant
favor
halo
neal
pa
pound
sees
slowing
stern
usatoday
victories
##ish
##ization
##j
##ries
##ved
05
allies
challenges
clients
console
crowded
february
hasn
heavily
kodak
northeastern
palace
passing
promising
settled
strikes
telescope
thanksgiving
tries
unemployment
vast
welcomed
##ler
##off
##per
2008
aviation
cowboys
flaw
henry
learned
linebacker
milwaukee
original
phil
sentence
simply
soared
switzerland
##res
##ue
62
aims
athletic
cap
exactly
freeze
gartner
hunt
imports
investments
jazeera
pipeline
policies
ratings
roll
siege
slowed
song
##ron
2007
69
approve
art
coal
creation
definition
eve
inch
indians
modern
monitor
ncaa
patrick
pole
relatives
strained
swedish
toyota
##ad
160
backup
bloody
chavez
civilian
colombia
cos
earn
gap
governing
humans
intc
marine
outsourcing
pentagon
processing
regulator
scene
willing
##by
actually
alone
bronze
conservative
demanded
deutsche
firing
myanmar
patents
powers
prompting
rounds
sense
starter
ziff
##ya
84
accident
aggressive
computerworld
defended
disk
employment
female
fox
guinea
handsets
momentum
neck
optimistic
organisation
pfizer
piece
promote
santa
split
supposed
symantec
##ay
arctic
audio
billions
brawl
clemens
compensation
dr
eliot
fixed
granted
grid
gymnastics
harmony
identified
influence
musab
penalty
serena
sexual
stormed
thin
titans
agassi
aiming
ally
baseman
chad
door
editor
intended
prompted
races
recorded
rout
sean
surrounding
throwing
##ell
aim
blackberry
celtic
czech
destruction
fate
fully
gear
lets
loans
newspapers
pretty
reality
resort
restore
retire
revised
slowdown
stood
tested
visitors
weight
##izing
##med
busch
commitment
dc
deadliest
formal
genesis
goog
handset
horse
hugo
newratings
places
remove
representing
ricky
thrown
waters
##ir
##ky
##mer
##out
els
expert
exporters
fenway
forcing
hd
kremlin
licensing
marking
rays
rolling
rovers
tentative
##go
##red
78
88
95
affairs
ailing
conducted
conspiracy
enforcement
kicked
meant
regarding
resistance
rocked
rushing
seeks
sharapova
spaceshipone
switch
text
ticket
touch
write
63
angry
asking
athletes
chirac
congressional
detained
diplomatic
ends
funding
malicious
melbourne
ones
opinion
protests
remember
replacement
severe
suspend
thinking
wmt
##back
##cy
##ha
##ney
68
adam
apart
beaten
challenger
contest
else
exhibition
forbes
maintain
material
native
outfielder
priced
ramallah
recovered
seriously
sp2
spirit
surprising
##ol
ballot
chemical
church
clinton
determined
equatorial
factories
jays
nick
overhaul
present
randy
reds
replaced
survived
vikings
village
voip
wildlife
##ised
competing
connections
criticized
crown
ernie
filled
henman
mother
peacekeepers
prominent
prosecutor
recover
schumacher
succeed
swept
type
volume
##io
##maker
##que
ac
automaker
bids
bound
cells
defender
disclosed
entering
eventually
fined
gov
hamilton
happened
insurgency
limit
netscape
pilot
pool
stalled
suspect
telling
triumph
withdrew
yankee
##be
##ham
##q
##tic
12th
cheney
crm
dropping
fit
humanitarian
insurer
invest
lived
revolution
robust
spokeswoman
tap
worry
worse
##ments
##ters
##tor
birds
blame
boom
clean
destroyed
devastating
israelis
kennedy
kyoto
landed
license
nec
older
parliamentary
portfolio
prospect
quest
quietly
speaking
speedway
suggesting
surging
temporary
tobacco
##der
56
buyers
chechnya
conduct
doubleclick
expensive
export
healthy
indies
learn
marlins
midfielder
pact
palmone
pennsylvania
plunged
raiders
raptors
stakes
trail
welcome
wider
wing
chancellor
counter
freedom
halliburton
hiring
intense
marion
minority
newest
northwest
optimism
particularly
pounded
rental
reserves
seahawks
stretch
stunning
various
##ga
##ible
##ot
##ving
ballots
belgium
billionaire
briton
certainly
crackdown
daniel
directly
dna
engineer
finds
globe
improvement
instruments
jacksonville
libya
managing
phase
politicians
quoted
rapidly
shop
signal
storms
trials
unix
urging
walked
william
winners
wisconsin
##tes
asset
carl
cavaliers
celebrate
delays
docomo
electricity
fashion
federation
grabbed
hailed
hike
impose
indicated
longest
ranks
risks
sa
scottish
standings
transportation
turns
##han
##ko
##ls
##ss
146
article
clearing
completing
coverage
curb
defend
eli
everton
exclusive
garcia
honda
impressive
independence
journalist
laboratory
leads
loan
madison
packed
regime
rugby
seeing
shook
strengthen
supporting
taylor
transport
treat
versus
##no
##to
##wood
activists
availability
blog
brothers
crystal
danger
deployment
easing
economists
fewer
gaining
gm
guerrillas
hollinger
kenya
mich
pages
path
postponed
proposals
rafael
ranging
removed
setback
stayed
tape
tsunami
updates
valuable
wage
##00
##cing
##ities
##point
blasts
controls
copy
doubts
ds
erupted
guy
iyad
jonathan
minor
rapid
replacing
sap
stockholm
unusual
weekly
weighed
##gb
92
acknowledged
addition
appealed
birmingham
celtics
chapter
christian
clinched
counting
diamondbacks
employers
endangered
enterprises
forget
gun
icc
kazaa
laid
listed
locked
mile
nepal
occupied
repair
saving
suddenly
##ious
1990s
89
96
abducted
bruce
buildings
dark
dealers
dividend
earthquakes
fort
fueled
hamstring
juan
malcolm
marks
mauresmo
medium
modest
publicly
unable
walker
witness
alert
ambassador
atmosphere
celebrated
changing
count
deploy
dubai
electoral
eriksson
flew
foreigners
goran
integration
involvement
lynch
magic
museum
prior
rebound
receiving
relatively
shawn
significantly
victim
##king
##lt
affect
bond
concessions
finishing
glazer
hander
ian
iowa
lakers
mississippi
mortar
murdoch
normal
outcome
pentium
quarterfinals
refugees
siemens
society
triggered
updated
violations
##om
alexander
alitalia
atop
bangkok
cautious
damaged
eisner
emissions
mumbai
protesters
sponsored
student
teammate
terry
urban
wouldn
##bly
##ical
##ster
11th
71
77
aaron
assassination
awards
calm
concluded
direction
eric
hunting
louisiana
phishing
pirates
posting
pyongyang
thatcher
tourists
trees
wars
##ba
##ld
##ming
72
adopted
aerospace
assists
branson
cheaper
dawn
elite
explain
fallen
hague
happen
library
negotiators
norway
releases
ripped
roy
settlements
taipei
teenager
##ied
##ists
##ite
##pe
brief
buried
cyber
ferrari
finland
formed
leaves
maccentral
mph
orioles
permission
preview
rape
senator
suggest
upon
usually
wine
wizards
##ina
##ves
##zing
ambitions
bloomberg
crack
document
floor
khan
knicks
mary
peyton
philips
pollution
portland
pulling
releasing
singles
tickets
tommy
toys
troy
upbeat
weakness
57
animals
audience
ballmer
bidding
brett
cape
charging
eliminate
established
evolution
expenses
flag
graeme
grant
guantanamo
helens
hundred
jobless
jointly
junior
juventus
necessary
negative
pricing
quarters
questioned
reputation
ride
route
sep
slid
sustained
tivo
triple
unveil
##gy
94
abbas
agenda
beleaguered
centers
choose
collapsed
devil
enable
exit
freshman
gathering
insurers
judges
lebanese
lying
manned
merge
observers
overcome
quiet
ravaged
reporter
require
seats
sitting
swapping
warplanes
wta
##ence
##rate
##uring
agreeing
antivirus
ata
beheaded
catholic
closest
condemned
contractor
emerge
ethnic
films
garden
handle
idc
inaugural
laptop
overcame
owen
prescription
professionals
recalled
rodriguez
santiago
southeastern
supermarket
survivors
suspicion
viktor
written
##tt
ambitious
battles
die
emc
guide
peak
poland
radcliffe
retain
sensitive
shortly
slower
subsidies
surprised
telecoms
trapped
waves
##ah
##ening
##hip
##ja
##ki
##over
2012
abuja
ace
basis
broncos
buyout
chipmaker
chosen
components
dave
derek
facilities
feeling
gene
harvard
hopeful
improper
jay
kiev
kurt
llc
longhorn
lycos
rating
regions
required
roster
rupert
sirius
steroids
stripped
trucks
u2
uncertainty
usual
vision
wholesale
wired
workforce
##com
##nd
##ov
##ration
##ware
abroad
aziz
barrels
basic
belgian
brad
captors
conglomerate
cornerback
eclipse
friend
interests
investigate
itanium
lifting
miners
monitoring
nc
ntt
owens
privacy
relay
violating
vulnerabilities
wimbledon
wonder
##head
##va
18th
baby
balance
checks
damascus
desperate
domain
dubbed
exporter
fill
jaguar
kingdom
lcd
lindsay
longtime
panthers
paula
philippine
reducing
reveal
spy
stepping
volatile
vulnerable
warns
wearing
##ance
##ee
##li
58
61
advice
amelie
bases
bloc
bolster
clinch
clinical
danny
davenport
divided
electrical
elsewhere
experimental
frankfurt
hip
houses
incident
items
magnitude
napster
nature
negotiating
percentage
permanent
poverty
rankings
realnetworks
resumed
sec
shortage
slashed
spoke
sue
supported
televisions
throw
##do
##un
abbey
aide
battled
bt
chargers
charlie
depot
disruptions
farmers
genocide
imac
inventory
jeremy
lunar
popularity
publishing
rebounded
rick
settlers
slowly
specific
steven
vancouver
vulnerability
wicket
##lo
##rin
##zed
active
automotive
battling
beef
bernie
birth
blocked
bloomfield
cease
del
effectively
girls
husband
identification
integrated
intellectual
lab
lucrative
minneapolis
moments
moqtada
mysterious
nato
revive
rigging
sacramento
samarra
tensions
thai
views
virtually
vital
##one
##ver
##ville
acquiring
agreements
announces
batting
conway
counterpart
exploration
hosts
jon
junk
kuwait
launches
manhattan
mystery
planets
shaquille
southwest
striking
tanks
tottenham
toy
twin
unique
uprising
worms
##hy
##ow
##ut
82
battery
becomes
bench
blu
complaint
contact
cuban
detonated
drawn
eddie
fame
gift
intends
medicine
merrill
mini
muqtada
note
notice
operate
persuade
pharmaceuticals
phillies
presented
ramirez
rim
rumsfeld
shape
struggles
temporarily
treaty
understand
##ably
##my
76
alleging
anger
berth
daimlerchrysler
delegation
flood
gateway
mcdonald
none
opens
physical
reliever
rice
sat
sells
submarine
syrian
##ual
1996
81
abandoned
actions
affected
attend
broadcasting
celebration
cheap
chen
clock
compound
delaware
devastated
dhaka
disappointed
dominance
em
grenade
hal
latin
lure
penalties
pensions
reader
recovering
runner
rush
served
sight
strongest
tycoon
##gen
##gs
##mo
##op
##za
120
74
adds
austin
boys
breaks
cartel
climb
competitor
constitution
dealing
eastman
encounter
falls
farm
geneva
hughes
installed
kathmandu
lehman
loyal
maoist
mo
originally
ortiz
ownership
owns
peru
plagued
proof
rams
registered
rfid
roman
savings
shake
skipper
tel
tender
tumbled
unknown
verge
##and
##burg
##ial
##ons
##well
aapl
absence
advocates
andreas
animation
blade
bright
canceled
challenging
envoy
escaped
featuring
greenhouse
incumbent
limits
lsu
missiles
montgomerie
mourning
pursue
rivalry
selected
slammed
southampton
soviet
spectacular
sporting
stuff
swimming
swing
tribunal
trick
##ify
##ked
650
aa
abc
arrival
astronaut
blackburn
breakthrough
briefly
clubs
completely
conrad
estimate
fines
helps
install
inter
keeps
langer
lenovo
map
matchup
mourinho
norwegian
purchased
safin
shared
shaukat
slash
stolen
suing
topped
travelers
withdrawn
zurich
##long
adopt
angel
attract
calendar
casualties
cd
clues
helicopters
milestone
moderate
nearby
resign
semifinal
shadow
slight
sort
statistics
steam
syracuse
telephony
ukrainian
warn
xinhua
##lon
##nts
abandon
anderson
branch
capped
custody
differences
diplomat
fled
fred
hampshire
hire
importance
insists
jerry
liquid
locker
omar
paypal
robot
sender
signals
standoff
suzuki
variety
veritas
##ess
##tta
##ude
bull
coffee
columbus
complaints
damages
departure
discussions
dvds
elena
flaws
flow
fossil
ghraib
grade
hu
jamal
louisville
luis
mahmoud
maine
nj
raids
resorts
rises
robinson
strokes
thousand
tracking
tying
vince
vivendi
whom
##ched
##cs
##ft
##ics
49ers
79
accusations
artest
aviv
ba
blasted
boycott
businessman
button
chrysler
colleagues
communication
demonstrated
detailed
dialogue
disappointment
drinks
extreme
finale
guidance
ibrahim
infected
islamist
jamaica
kyle
mistakes
multimedia
ovitz
raw
regulations
retreat
shortstop
trojan
valued
visited
##ions
##rating
##tle
architecture
ayad
column
comcast
component
counted
defeating
delegates
dust
escape
favre
flooding
gamers
gross
handling
indicted
marat
metal
opposed
penn
platforms
polish
predict
protecting
pursuit
scheme
shutout
slugger
theory
thinks
trump
unrest
venezuelan
volkswagen
##ered
900
93
aides
animal
arlington
attempted
beer
campus
cat
combination
connect
connected
containing
dal
distributor
drink
establish
guns
im
individuals
inspired
keith
mails
malaysian
offshore
pressed
rockies
shoot
staged
stages
strongly
tore
tracks
treated
videotape
##ile
##tive
##town
##ward
ankara
arbitration
berkeley
bertrand
bureau
cargo
caution
command
declining
erp
example
g5
gmail
identify
kidnapping
kids
legislative
luke
mistake
mvp
narrow
neither
pornography
presidency
profitable
programming
qantas
reduction
sank
soyuz
spurs
stanley
sudden
visa
yudhoyono
##port
aristide
atp
bengals
berlusconi
brewers
campaigns
carmaker
chaos
courts
detainees
freddie
fun
hitter
imminent
interested
mavericks
mercury
mexican
occurred
ontario
outstanding
pioneer
primary
roughly
statements
swap
teamed
tells
tree
twenty
tyler
usc
##berg
##bs
##ford
##wa
00
130
academy
adults
approximately
bankers
benchmark
clearly
comfortable
corner
crossing
duty
empire
f1
falcons
favourite
filmmaker
gen
genetic
hero
hubble
interesting
introducing
johnny
meets
mmc
mutu
nairobi
netflix
optical
oriented
padres
perform
pti
refusing
repeat
richest
roebuck
rover
santander
serie
silvio
simultaneously
spurred
suffer
susilo
talent
teenage
violated
wreckage
##bed
##bo
##tone
##tz
##ul
1998
attendants
bambang
bcs
biotechnology
culture
dealt
doctor
doubles
exercise
guerrilla
harrington
hellip
jeffrey
md
nvidia
pinochet
plotting
pope
puts
restaurant
revenge
roma
salvation
sam
sit
slip
straw
td
terrell
tougher
tribal
unchanged
urgent
venus
##air
##ering
##ill
acquisitions
aging
agriculture
aids
daughter
distributed
drama
eagle
expecting
fighter
holidays
hosted
jintao
knockout
landslides
liberty
mainly
marriage
metro
midnight
mounting
nationals
nt
nuggets
patches
portsmouth
prepares
properties
quarterbacks
queen
redmond
remarkable
roads
salary
secured
shipped
studies
stunned
threaten
unsolicited
valencia
wrapped
yellow
##bury
##day
##ino
##ti
##ties
##ured
basque
booming
breeders
catcher
cocaine
collection
dean
dominate
drawing
enabled
encouraged
factor
fixing
gay
guards
guidant
interactive
kazakhstan
lebron
manny
mate
metres
militiamen
occupation
p2pnet
pending
pk
rains
ralph
rescuers
souness
spreading
stable
turmoil
universe
##fully
##water
01
acc
alabama
alaska
amateur
arrests
banning
bat
beirut
bombed
chose
disarm
downloading
earnhardt
enjoyed
explosive
grace
greg
ichiro
intention
islam
learning
mad
mojave
negotiate
nfc
pierce
please
portal
proceedings
raises
reiterated
romania
shrugged
singer
slump
snap
specialist
spin
spotlight
stanford
survival
threatens
veterans
walking
zook
##ened
##hi
148
87
administrator
arrive
batteries
bayern
branded
brings
broader
burning
craft
dot
downtown
engaged
extremely
fcc
frozen
funeral
grizzlies
guys
hanging
highway
improvements
investigations
lord
lowe
matthew
midway
miguel
missouri
nbc
policemen
researcher
rivers
stemming
strengthening
timberwolves
towns
undisclosed
waited
##ans
##ath
##ff
##ni
##ral
##rt
##time
13th
350
59
802
achieve
adviser
arch
arts
asylum
attorneys
australians
cnet
creditors
cycling
dale
deficits
displays
elect
false
findings
frequency
impossible
influential
killer
laboratories
lane
legend
master
milosevic
mitsubishi
nobody
panama
patrol
pieces
plea
promoting
pullout
purdue
rio
ruud
samples
screens
stability
strain
symbian
techweb
todd
villa
yes
##ball
##ber
accord
brokers
caracas
compromise
delivering
desktops
doubleheader
economies
embargo
enables
error
except
fleet
fool
gambling
generic
grip
gunfire
hardly
hosting
margin
memorial
monitors
ob
offseason
orbiting
print
radar
regain
reliance
resolving
sacked
slobodan
structure
surprisingly
tons
trademark
unanimously
viacom
wnba
yushchenko
##ang
##ray
##vin
225
abuses
applied
arguments
attacking
augusto
automatic
buoyed
continent
costly
cow
crawford
crunch
dairy
decisions
decisive
deployed
doors
equipped
fatal
formerly
gibbs
holmes
il
incentives
keefe
libraries
manila
maurice
mrk
muscle
nor
opteron
oregon
pirated
purchases
renault
secretly
shattered
sheikh
stick
successive
supports
testimony
treo
warm
weren
whales
##au
##mi
##wing
101
anywhere
attackers
bali
behavior
birthday
bolton
bulls
collect
conceded
contain
conviction
corey
deciding
dictator
disrupted
encourage
enhanced
fbi
fee
harris
icon
incoming
kelly
koizumi
labels
lock
mall
manuel
mix
nv
organizers
oscar
outgoing
philip
processes
professor
prosecution
reaction
register
regulation
royals
rwanda
safely
solve
spots
steep
tyrone
upper
##ew
##gle
##ification
##ome
##ular
##work
135
97
academic
alongside
attacker
author
bernard
blocks
bullpen
cambodia
campbell
camps
circulation
clara
cloning
confirm
deeper
emirates
errors
experiments
fifa
firewall
golfer
halted
homers
hornets
household
ie
incidents
interface
junichiro
lackluster
lone
massacre
partial
patient
peaceful
personnel
pocket
pointed
reflecting
reign
resolved
respect
resulted
rwandan
saints
sao
shootout
sick
smoke
subscription
substantial
testified
tip
tradition
transaction
turf
waste
widened
wright
writing
##ale
##ok
##ric
147
20th
abdullah
answers
assessment
attempting
backs
bluetooth
chilean
cloud
ed
en
enemy
eta
freestyle
frustrated
funded
grab
haitian
headlines
hospitals
investing
kuala
lumpur
maintained
margins
meyer
mice
nicolas
nistelrooy
obtained
praised
qualify
questionable
recognition
recommended
remarks
salt
steroid
tvs
volcano
writers
wrote
##ability
##bing
##ice
##tory
acting
activist
ahmed
cal
campaigning
challenged
crushed
dramatically
ecclestone
emotional
fedex
formats
franklin
fulham
gonaives
havana
hawks
hedge
holder
hunger
integrate
interfax
liberal
likes
lyon
nbsp
nightmare
opportunities
oval
peterson
reject
restaurants
riding
rod
rss
serb
shed
signaled
sr
tired
warriors
weakened
weapon
wells
willingham
##aw
##down
##gn
##her
##lan
##pa
83
98
argentine
arnold
array
arriving
bear
blocking
buenos
calgary
carries
casey
comprehensive
corporations
dennis
donovan
fake
goldman
heels
indefinitely
institutions
journey
letters
locations
mainstream
middlesbrough
panels
punch
represents
rutherford
shocked
svetlana
tendulkar
trainer
tri
uncertain
upgrading
wto
xm
##ations
##ified
##nes
##net
##pt
##rie
##rm
09
140
2009
91
abusing
adapters
aires
apartment
aware
ballistic
bounced
boxes
capping
cellphone
chair
click
collaboration
convince
covered
cracked
creative
dipped
experiment
extinction
fa
fat
followers
gather
hearts
initially
initiatives
jaguars
johannesburg
laser
luxembourg
mainland
mci
minds
monopoly
northwestern
oldest
overturn
p2p
picking
praise
priest
raymond
requested
rotation
sheffield
shops
sidelined
sorenstam
sutton
swift
teaming
theo
thirds
throws
ultimately
uncovered
ups
visits
##ets
##hed
##ram
##sed
##sion
##ult
##van
750
airports
anwar
asbestos
authentication
awaiting
bargain
belarus
brady
buccaneers
burst
cds
clubhouse
collins
comment
continental
controlling
countrys
currencies
declines
divisions
eating
efficient
feels
focusing
harder
hitachi
honor
jeeves
kings
klitschko
labs
liberation
marcus
moore
opera
otherwise
plastic
pledge
politician
preparation
protected
qualcomm
raided
rail
remainder
representative
residential
restrictions
reveals
sealed
selection
sideline
speak
sprinters
srinagar
stories
strange
stuck
submitted
talked
undergoing
unveiling
unwanted
viewing
window
wish
yugoslav
##house
##mate
##our
03
73
advisory
aggressively
ansari
approached
beheading
borrowing
cambridge
collective
coordinator
crater
dedicated
dreams
eds
ericsson
expense
forms
gray
handing
height
herself
ideas
knock
knowledge
loaded
mickelson
overshadowed
participate
pat
paulo
pennington
pitcairn
preparations
projected
responded
revealing
rossi
rubber
saved
scaled
scare
section
seemingly
siliconvalley
sliding
steal
tank
tears
ted
twist
upheld
villagers
wilson
##che
##een
##fi
##ix
##light
##making
##mb
##nder
##tate
##use
106
19th
abidjan
advances
advertisement
aired
appliance
assured
bag
banker
betting
carbon
celebrating
channels
chemicals
chicken
coastal
colo
conventional
convincing
correct
cycle
difference
discover
discussed
disputes
dogs
experienced
explore
expo
fail
feed
forthcoming
founders
halfway
highbury
hunters
innovation
jp
kentucky
layer
listen
location
lpga
mcafee
meaning
microprocessor
nagpur
nervous
notes
odds
oslo
peacekeeping
peninsula
performances
posts
productivity
promotion
readers
sachin
sco
sexually
shui
sights
skills
slumped
spa
spectrum
spotted
stamp
stopping
suisse
tailback
temperatures
textile
thierry
tourist
trillion
underway
##ifying
##ig
##kin
##late
##si
##val
06
100th
albert
assigned
automakers
bhp
blockade
clashed
clippers
constitutional
covering
darren
dublin
ellison
empty
escalating
extremists
gadgets
genetically
glass
halftime
halifax
harm
illness
imam
introduction
iron
messenger
mild
mode
mortgages
neighborhood
neighboring
nepalese
oh
outlined
painkiller
palmsource
porto
pose
printers
publishers
questioning
racist
recalling
robin
sachs
skies
staying
tamil
technique
timing
tire
tm
undefeated
underwent
unidentified
unmanned
useful
victor
websites
##cies
##ik
##lly
##mp
##nity
##room
##tch
##ther
##yer
1980s
1995
activated
armstrong
asks
assistance
austrian
bayer
bian
buyer
category
ceasefire
clk
colombian
communities
companys
compatible
comply
consulting
cooper
designer
detected
entirely
follows
glory
grey
handful
heated
hometown
hurdle
infineon
invitational
joseph
kenteris
knocking
label
latham
lights
lingering
marwan
militias
mills
modified
moss
outbreak
oversight
restructure
robots
ross
rural
satellites
schwarzenegger
shaky
strengthened
telstra
township
ugly
undergo
voter
wash
##ade
##ants
##dale
##hs
##mon
##rn
##ud
aftermath
agrees
arguing
argument
assist
avert
bargaining
bernhard
birdie
bone
bounce
bruised
centuries
commanders
concept
correspondent
detention
directories
distribute
equivalent
external
extraordinary
faith
fischer
fortunes
generated
goalkeeper
jennifer
jimmy
jumping
leftist
legendary
letting
likud
married
norodom
numerous
ordering
persistent
plug
pride
rejecting
repeated
respond
restive
reverse
slipping
spaniard
spark
spurrier
stealing
switches
sworn
truce
turnaround
vonage
##ain
##load
##ory
##tte
##uri
##vers
104
17th
2010
550
adams
advisers
ala
anticipation
arroyo
audit
badly
barred
benitez
bet
bombers
bryan
burned
canaveral
catching
crowds
curse
discussion
drought
duties
embarrassing
embrace
execution
factors
founded
generally
giambi
grown
holders
hottest
hybrid
hydrogen
inq7
inspector
intent
ira
issuing
jazz
ko
landslide
mayer
mgm
multibillion
municipal
nelson
obtaining
pitches
premium
printer
prisoner
propelled
raced
ramadi
rein
smoking
spate
starbucks
substance
survive
traveling
walls
##ana
##cked
##ek
##ency
##fied
##gate
##ique
##lin
##list
##sts
102
21st
annika
annually
apparel
arrives
artists
bc
bmw
bode
cancel
closure
collected
commit
conclusion
damaging
dig
exporting
graham
grounds
hurdles
imagine
implement
indexes
innovative
javier
joy
karachi
kuznetsova
lasting
lending
licenses
listing
logic
mcnair
meanwhile
mound
mounted
nights
ore
performed
plead
poured
pressing
qwest
reacted
reviews
rob
scan
searched
shane
shark
slum
sophisticated
spare
speeds
stiff
symbol
thomson
tragedy
treasuries
undermine
unfair
wealth
##aking
##bi
##di
##im
##ology
##ord
##sm
##stic
##tors
103
adoption
barbados
beltran
blaming
casting
causes
checkpoint
contention
contributed
coveted
crop
degree
derby
digit
disabled
diving
dog
dreamworks
drugmaker
dumped
dunhill
eleven
europeans
eurozone
evacuate
excited
festival
fielder
gazprom
gerhard
hiding
highlight
insisting
lawrence
lender
marched
matched
miner
mouse
nice
outfit
outskirts
pete
postal
provincial
recruits
represent
requiring
resource
rivera
rogers
salvador
santana
scams
scrap
sergio
shy
southwestern
sparking
specifically
spike
stated
suns
surrounded
ultra
underground
viewers
wade
yao
##ced
##cted
##ction
##iest
##ire
##ising
##pping
110
35th
apply
architect
attached
attended
beneath
billiton
brent
browsers
bundesliga
castro
cheese
confusion
conn
convinced
cruised
declaration
definitive
disclose
disrupt
duke
eserver
featured
filling
hidden
hpq
hub
imf
ind
indicating
invited
josh
lashed
maintenance
marketplace
midst
missions
mood
nashville
requirements
rocky
romanian
sample
scandals
screensaver
simon
smashed
snapped
sounds
specification
stone
strapped
sweet
tactics
tale
thoughts
thwart
touched
underlying
winless
##10
##fer
##ick
##ins
##ison
##ited
##ore
##pers
##rb
##rted
##sky
##ston
14th
achieved
appointment
arabic
automatically
bilateral
blown
brink
cia
climbing
clinching
concrete
contested
cooling
coughlin
courtroom
displaced
downloaded
dragged
durable
elderly
extradition
fishing
frustration
ganguly
gotten
hispano
img
immigration
informed
intervention
investigated
kicks
lance
leisure
lists
lots
lumber
mariano
nys
partly
referee
reversed
reversing
rooms
sandwich
seal
settling
sinai
smallest
soil
stole
suse
tass
temple
throne
truth
tunnel
unleashed
upgrades
valentino
verdict
vitali
woes
##ab
##ator
##em
##hill
##ller
##ners
##rated
##ture
##tv
##vs
##vy
02
15th
1970s
76ers
adelaide
aged
alexandria
aluminum
barrage
barrichello
bea
billy
branches
burt
cancelled
charlton
cited
consolidation
damon
depth
desire
dressed
dumping
eager
enhancements
fledgling
folks
functions
gerrard
hair
healthcare
hospitality
hungary
intensified
kenyan
kreme
krispy
lined
mandate
marshall
ming
modestly
narrowly
nevada
overwhelming
paramilitary
polling
providence
rank
rated
reflect
risen
robotic
sciences
securing
separatists
sidelines
siebel
sister
stats
submit
sugar
tenn
transition
turnovers
types
ultimate
walter
weary
wondering
##ees
##ens
##nn
##ris
##sen
##ute
1990
acrobat
approaching
argued
bee
bold
burma
captive
columnist
conflicts
copyrighted
counterparts
crossed
developments
diet
engineered
excess
felix
fortune
framework
gearing
greeted
heisman
hikes
itar
jordanian
jpeg
laptops
legacy
lucent
lukoil
megawati
miracle
mud
nazi
nose
oxygen
papers
pfe
plate
principle
rbi
rebuild
rings
roadside
scam
segment
seville
ships
spencer
stressed
tightening
tossed
transactions
understanding
unity
vogts
watchers
##ack
##ari
##ars
##ily
##ings
##ives
##lating
##ph
##py
##rent
##rian
##tter
##uting
105
125
accepting
admitting
adult
balco
bronx
bug
celebrex
champ
concert
contender
crushing
cybersecurity
demonstration
discs
equal
everywhere
evil
exciting
fernando
foxboro
frontier
fujitsu
functionality
haul
hungarian
kent
liga
linking
male
medallist
medicines
misleading
mohammad
mountains
origin
particular
pointing
preventing
recorders
reorganization
revolutionary
routine
rubens
schwab
sophomore
sprinter
studying
supersonics
tourism
touted
toxic
trojans
uniform
universities
violation
volleyball
younger
##ano
##ax
##board
##ges
##gled
##km
##wide
##zy
1997
320
afc
aung
battleground
bearing
blazers
bolstered
capability
captivity
colgate
commanding
commentary
commodity
compact
conservation
designs
dirty
earliest
fights
fingerprint
firmly
fortified
furious
glenn
goldwyn
governance
gunners
happens
hungry
implementation
interstate
ioc
jenson
joey
keys
killings
kraft
log
measured
negotiator
nnn
notebooks
oust
outright
packages
palmer
parmalat
portugal
prayers
proceed
ramadan
recommendations
regained
reminder
removing
safer
sessions
silverstone
skin
smooth
sounded
tear
thick
toolbar
tracy
typical
wear
weighing
width
xinhuanet
##ery
##ett
##ho
##ians
##ils
##int
##market
##oe
##ologists
##pc
##po
115
actor
addresses
affair
affordable
anil
atrocities
barrier
basra
birdies
blind
blogs
brewer
bud
conducting
conocophillips
declaring
demonstrators
detect
dial
diesel
eat
elbow
footage
foster
foxborough
ge
generate
grenada
grim
hacker
hang
hopkins
import
inevitable
institutional
jeter
judgment
liable
ligament
luck
lunch
medicare
murdered
picks
portion
posed
possession
predicting
princess
proprietary
reggie
rejection
responding
rough
sabotage
select
shield
signaling
skype
spur
stretched
thaksin
tribune
uairq
ucla
unlike
upgraded
urge
wis
wrigley
wrist
##20
##ap
##away
##ghz
##hing
##ium
##ren
##ried
##soft
##tar
##win
850
abruptly
accelerate
affiliate
album
alcoa
amazing
ann
announcements
anyway
astrazeneca
avenue
avoided
bellwether
boat
breath
ceiling
chains
chat
citizen
clark
clarke
combine
consumption
contentious
costa
cox
criminals
critically
cyprus
debates
directory
disciplinary
distributing
eligible
eliminated
enhancing
entrepreneur
examine
exploit
fault
finances
fixes
fnm
fuels
gators
gop
hammered
hurting
imaging
inspectors
jimenez
keyboard
kicker
kidney
km
lockheed
looming
midsize
ok
ordinary
outlets
painful
perth
pleading
promoted
prototype
psp
quotas
reeling
resident
reward
riot
rutan
secrets
seizing
sequel
shoes
slew
sms
stance
stored
surfers
taiwanese
tall
teachers
telekom
theme
thrilling
tribute
visual
volunteers
wallace
westwood
withdrawing
##box
##des
##fall
##gan
##ically
##lis
##lle
##ncy
##of
##ong
##pass
##pm
##rry
##urse
##vi
##world
1992
alberta
avoiding
bail
barclays
borders
bosnian
braced
breathing
brien
burn
buzz
charity
collision
confrontation
congolese
consequences
copper
cruise
csco
define
delaying
diseases
dominating
doughnuts
encouraging
exposed
fares
fidel
finalized
francis
gang
gesture
indicates
interception
jammu
jerome
joins
kumar
lately
lengthy
maathai
marred
mastercard
mastermind
mbeki
meat
medics
michelle
moya
naval
normally
notorious
obvious
posing
pounding
prestigious
proving
puerto
pump
rep
revered
roared
routes
scenes
scrutiny
seller
shelves
succeeded
suu
swung
tea
tense
thompson
tightened
trades
trains
wages
wimax
zero
##band
##bility
##ching
##cks
##ec
##ex
##ini
##lation
##nal
##ou
##pes
##sy
##table
##uan
##uation
##uded
##ung
##unk
107
anglo
argue
benefited
blunkett
bombardier
bradley
breast
bremen
broadcaster
bypass
cendant
clijsters
commissions
contained
derail
ditch
essential
et
forgotten
griffin
honeywell
iii
isolated
johan
kid
kyi
lilly
mario
meteor
moons
morris
organized
orthodox
pill
pitchers
policeman
precious
preserve
relentless
restate
riaa
sebastien
serbia
shaped
shower
stuart
surveillance
tenure
tower
trio
tripled
wedding
whatever
willis
wood
yuan
##ak
##ane
##any
##cher
##eon
##hood
##iled
##ip
##od
##oping
##ovich
##position
##ship
##teen
##uing
##zer
230
affecting
airwaves
appearing
appetite
ariz
arkansas
assassinated
automated
bend
boards
bones
brandon
characters
clemson
compliance
confirmation
contenders
counterfeit
counties
counts
crops
deadlock
debts
definitely
dementieva
determination
dip
disruption
downward
drinking
dynamic
eliminating
enemies
enters
environmentalists
evacuated
executed
factions
frequent
god
guarantee
hemisphere
hovered
huskies
huygens
inched
indeed
inmates
innocent
invitation
junta
katie
landscape
libyan
lima
marc
medalist
mercantile
millennium
observatory
padraig
paving
payton
pda
peers
petrol
prevented
procedure
protesting
pursuing
putt
registration
relative
schroeder
seize
slain
soybean
spinner
spree
staging
stops
surrender
suspicious
tag
tapped
topping
torture
trained
triggering
truly
turner
villages
voluntary
##fe
##force
##gation
##iling
##lm
##mail
##non
##ologist
##ran
##sis
##ues
##uous
##uted
##vision
##woman
108
700th
aftershocks
aig
amendment
amounts
attending
barghouti
belief
berti
broaden
buses
casinos
chasing
cheered
coles
complained
completion
dangers
deeply
denying
desk
destroy
directed
draws
drops
elements
embryonic
enjoy
failures
favour
fiber
fl
flexible
fragile
galaxy
grocery
guillen
harrison
healthdaynews
interviews
jenkins
johansson
jurors
kidd
lenders
lowering
mainframe
mcnabb
methods
migration
mines
motley
nas
nightclub
nominee
opposing
outages
poorest
qualifiers
railway
rallying
refusal
repeatedly
requires
rouge
sectors
seeds
sergei
silence
sourav
sprained
suggestions
sukarnoputri
sw
switching
traces
trends
ual
upward
values
ward
wpp
##are
##bles
##hl
##isation
##tra
##ua
##uss
##uts
##wick
08
acquitted
administrators
approaches
auditors
ballpark
banner
beats
behalf
belichick
belt
bernabeu
booked
brutal
bulk
cement
consoles
contractors
contribute
crashes
cultural
dating
desperately
destroying
discussing
disorder
duncan
earthlink
environments
feat
fence
fold
g4
ga
gallon
gdt
genes
gifts
grave
guarded
hefty
hendrick
hernandez
hilton
households
idaho
inches
indicate
indication
intensive
kickoff
lies
lithuania
load
matching
method
mouth
nearing
obtain
parade
parcells
participants
payrolls
pledges
powerhouse
presidents
randolph
ratified
relieved
rely
revamped
riyadh
routers
rumors
runners
sainsbury
saint
shinawatra
shortages
skip
slalom
sleep
smile
solo
speaker
sum
superstar
thabo
thanou
torre
usage
vaughan
willie
wound
yields
youth
zdnet
##ama
##atic
##corp
##culated
##ert
##hen
##ility
##jan
##nne
##power
##ten
##the
##tly
##tting
##unt
##ures
180
1994
ab
abused
anastasia
apologized
artificial
athlete
bargains
barrett
bed
boise
bosnia
breach
brilliant
brisbane
bristol
bucks
bunch
centrino
character
choices
choosing
cink
confirms
defenses
denial
disclosure
eagerly
edging
eindhoven
embedded
endorsed
exceed
fumble
gases
gatlin
gillette
glasgow
glimpse
glitches
guaranteed
haas
hawaii
hearings
heightened
hung
jupiter
keynote
lauren
leagues
lobby
located
lou
macintosh
majors
maximum
mere
midday
mikhail
monster
motorsports
mylan
myskina
narrowed
noted
novel
object
operates
operative
overture
passwords
pause
politically
portuguese
power5
prairie
predicts
primarily
provisional
purportedly
quebec
reigning
reluctant
restoring
retiring
roots
routed
sasser
senators
shifting
sore
spinning
stomach
suburban
supercomputing
teenagers
telegraph
televised
tension
theater
tighten
trigger
unclear
warlord
wrestling
##ala
##bb
##fy
##gged
##iate
##mann
##nk
##oft
##press
##rc
##right
##side
##sley
##ulation
##vor
##week
1991
1x1
200301151450
amnesty
automobile
bars
belfast
biotech
bobcats
burden
buys
cayman
celebrity
checking
cheer
cigarette
clouds
colony
compiled
consensus
conte
creates
creator
declare
defiant
dent
dinner
dissident
dodge
dome
doug
dying
employed
everybody
exception
exchanges
expands
finnish
forests
fraudulent
function
gerry
heritage
hinted
html
hunter
ifw
ignored
immigrants
impending
inflated
interference
jboss
judicial
kilometers
lahore
lara
laura
leaked
lexmark
lucky
macromedia
measuring
middleweight
milk
mls
motorcycle
myer
nasty
nationally
neighbors
objections
odd
ord
oxford
palestine
payroll
perez
petersburg
pioneering
pipelines
plunge
podium
powerbook
prnewswire
qatar
quake
qualified
quincy
radiation
rattled
recognize
recommend
resulting
revived
rigged
roethlisberger
rubble
scrambled
shaun
shrinking
singled
sinn
sistani
slim
slovakia
somewhat
speaks
src
startup
suppliers
surfaced
sz
technological
texans
ubs
ufj
variant
volvo
wangari
werder
wheel
worldcom
##30
##ai
##aries
##ates
##born
##gh
##kar
##ker
##let
##lied
##more
##og
##ont
##ple
##ser
##tein
##ui
##ull
##ury
16th
airplane
ambani
amit
anonymous
artillery
aston
ayatollah
bandwidth
batch
benson
chest
cole
complicated
consulate
coulthard
crashing
cska
cy
downgraded
dsl
edward
elimination
enrnq
epic
fails
fidelity
flushing
fon
forge
fueling
furniture
geoff
glaciers
harsh
hotly
hoya
hudson
lakes
leaning
lethal
likelihood
linda
mel
memories
mighty
minimum
monaco
mondavi
nike
outs
packing
passage
pennant
petition
pointer
prevention
psv
quattrone
rescued
retains
roofs
severely
shoe
shortfall
simplify
sooners
sosa
spell
srichaphan
starters
summary
superb
thigh
toss
tune
unilever
voiced
warren
wmc
woolworths
yourself
##burn
##cent
##ders
##fication
##he
##ica
##kes
##lor
##makers
##nie
##oma
##oo
##oon
##owed
##pped
##tered
abrupt
aceh
admits
advancing
airliners
ambush
amr
animated
antarctic
athlon
backers
bakar
baker
bashir
blowing
bowler
bp
britains
bury
caps
champagne
chess
chipset
colombo
confirming
contains
contributions
corps
cream
creek
crowned
custom
danish
deserved
disarmament
disgraced
dismal
diversified
dwight
eads
enabling
exceeded
expires
fatah
fc
fda
fend
flurry
foe
forecasters
gadget
georgian
gogh
hardenne
henin
highlights
hype
indy
influenza
jake
jihad
kurdish
lap
layoffs
lg
lightning
listings
loose
malone
marvel
mason
matters
millionaire
mohamed
mps
multimillion
musical
noticed
outlooks
pierre
pile
plasma
purpose
ransom
rarely
recorder
remembered
retained
retreated
rib
richardson
robbie
runoff
salvage
sharman
shipment
shirt
smartphone
solved
spirits
spoken
sub
tariffs
territories
topics
torrential
treatments
unauthorized
unveils
visible
wanting
wgc
x86
zoo
##bridge
##ches
##ef
##ese
##gi
##izes
##kins
##len
##lling
##oke
##ress
##rich
##rus
##some
##tal
##uit
##urg
##via
##yard
##ye
112
1980
210
450
accelerated
adwords
afford
afghans
ahmad
appealing
appliances
assess
basket
beauty
blues
bout
breakaway
broadcasters
bugs
bullish
cabrera
cafes
canberra
capriati
cats
charter
cleaning
commodities
conferencing
consideration
dance
debris
delphi
depleted
designated
devils
dioxide
dis
disappeared
dominican
dry
dug
edmonton
embryos
employer
enhance
enjoying
entrance
expressing
favored
finley
foray
ft
funk
gamble
gdp
governors
guillermo
hamza
helsinki
himalayan
iaea
jeddah
jumper
knight
latter
listening
lp
ma
max
merely
middleware
musicmatch
noon
operated
opposite
pavano
pdas
pink
ponting
properly
quarterfinal
rampant
reaches
receivers
reliable
rent
resuming
retailing
rocks
sanjay
seekers
sihanouk
sql
stream
stun
substantially
surpassed
tags
tearing
tendon
thus
trailing
transmission
transplant
tyson
unlimited
vatican
viewed
weigh
##80
##ators
##cast
##chi
##cus
##fold
##gers
##heim
##icing
##iers
##ishing
##istic
##logists
##mos
##play
##rse
##ub
##una
##une
##urity
##used
##ven
##zar
114
achievement
achilles
addressing
alternatives
anfield
anymore
apiece
assam
ati
bellsouth
bounty
bread
burundi
caminiti
capturing
childhood
christopher
cluster
coliseum
combines
concerning
contingent
da
discounts
elizabeth
ethics
evacuation
exist
extensive
eyed
famed
flee
foes
forums
foul
gate
gauge
gb
generator
gutierrez
hammer
hazard
identifying
ignoring
imprisoned
ink
installing
invented
jockey
karl
kostas
leak
leinart
litigation
medley
mourners
nissan
nottingham
olusegun
palmolive
paradorn
photography
planetary
poison
primera
prizes
reaffirmed
reconstruction
ricardo
richmond
robson
saga
scrambling
searches
shore
shrek
slashing
squeezed
steering
stockpiles
sullivan
suspensions
talented
tally
tasks
testify
thieves
tipped
tournaments
touting
travis
trinidad
troop
turin
twx
upstart
videos
violate
volumes
witnessed
yield
##50
##ach
##bled
##cal
##cating
##ctor
##ddle
##dication
##dome
##eri
##inating
##ination
##ista
##lands
##ock
##oni
##place
##stein
##ugh
##usion
##wed
##weight
##ws
145
43a
accuses
admission
admit
afx
armored
asean
associate
asteroid
await
balanced
baton
beaches
bloggers
bolstering
bosses
canadians
carling
cellphones
chennai
classified
commons
conservationists
coral
dates
defeats
denmark
departments
disastrous
discrimination
diverted
divide
downhill
drag
dump
editors
elephants
epidemic
faction
fading
fiery
generating
goosen
grows
hate
heathrow
henrik
hiv
hotmail
incentive
indoor
inner
jermaine
jnj
jolted
justine
kellogg
length
licensed
lion
loved
manner
martial
mcd
medication
melting
merchandise
microprocessors
missteps
offences
orbitz
organize
outer
outpost
patterson
performing
positioning
pujols
punishment
purposes
redknapp
respected
restart
restored
rolls
routing
savvy
scattered
sons
stamford
stoked
strategies
suits
tackling
techniques
thunderbird
tips
typically
undisputed
vera
voluntarily
vowing
wally
waltham
waziristan
wrap
##card
##eer
##eo
##gie
##gue
##ield
##itive
##llo
##mc
##mm
##pel
##rant
##ree
##ret
##rts
##run
##sted
##uff
##ught
##ups
##zz
113
117
170
1918
acts
advertisements
alonzo
alter
attractive
bakeries
behead
bromwich
buddhist
carly
checked
circulating
clutch
comparison
consolidate
contribution
converted
criticised
cyclist
delivers
describe
detection
disengagement
downing
dusty
erik
exercised
explanation
exploring
extinct
fallout
ferdinand
fiat
flawed
flown
forming
frenchman
fundamental
gardner
greenberg
groin
grumman
guided
hardie
hbos
helm
homeless
hypersonic
hyun
icahn
indoors
inspection
involves
kmrt
legally
legitimate
lovers
managerial
manufactured
mardy
mental
mergers
metropolitan
microsofts
mmo2
morocco
motorsport
mugabe
musicians
oao
obesity
org
ossetia
overcoming
overturned
owes
peruvian
porn
pressures
printing
profitability
proposing
provinces
racial
rico
robertson
roh
russians
sammy
sas
shaken
sheet
shelters
shouldn
silent
slaying
spectators
squeeze
steelmaker
stuttgart
subscriber
succession
sunw
talladega
taste
thirty
tone
triangle
trusted
tx
utilities
vacation
walkman
washed
wet
worrying
zvonareva
##65
##als
##ancy
##bar
##cap
##ci
##eller
##ev
##gned
##ids
##if
##inated
##iness
##ira
##lay
##lines
##lish
##mire
##named
##ocal
##olk
##ova
##piece
##rine
##rl
##rman
##ses
##shire
##sive
##space
##tc
##tions
##ually
##uce
##unced
##vation
##wl
##ying
240
advertisers
alcohol
ancestor
apache
assurance
balls
barroso
belgrade
billing
browsing
bucharest
canas
canon
chartered
coma
connectivity
considers
constellation
convert
cooperate
crush
databases
davidson
deliberately
denounced
deny
derailed
devastation
doomed
downgrade
edt
examined
excitement
fairly
fanning
fare
faulty
figured
finger
fitting
float
floating
foiled
forever
formation
freely
greene
grilled
guerrero
guests
gymnast
hartford
honored
horror
hynix
improperly
informal
insider
inspections
installation
intact
involve
item
kkd
knowing
koreans
lagos
leap
lifestyle
lincoln
loud
mates
metals
murphy
narrower
neighbouring
neil
nerve
nowhere
obasanjo
optic
organizing
otellini
partially
passion
pinch
pivotal
pleased
pointers
premature
produces
publicity
raleigh
randall
ratification
rebellion
reed
relating
retief
reviewing
rewards
ronaldo
rs
rust
sack
secondary
sellers
sergeant
severance
shaking
slapped
speeding
speedy
steadily
stellar
strife
tanker
terminate
thank
toppled
transform
traveled
unarmed
unconstitutional
uni
vacant
viagra
warehouse
washing
weis
whenever
wilkinson
workstations
wraps
yhoo
##ace
##act
##ats
##dom
##ished
##iting
##ito
##ived
##lies
##lk
##logy
##nation
##nc
##ony
##own
##rick
##sters
##tation
##tti
##ug
##ulating
##und
##ura
##vo
##wn
##ys
144
1986
1st
2bn
7e7
abduction
abdul
abortion
accelerating
adjusted
akron
anybody
archaeologists
attitude
banknorth
bowden
britons
carmelo
chassis
colonial
combining
contacts
coors
dashed
deploying
dillon
disasters
dunn
erdogan
examining
expire
explicit
extremist
facts
fein
fleming
floated
flows
geographic
ghz
gloria
grain
grenades
halloween
harare
headline
headscarves
herald
homestead
horses
implantable
impressed
incredible
ing
interoperability
ipods
iss
jiang
lady
lands
laurent
leaderboard
legs
lie
literally
loeb
loses
lung
lynn
mccain
megapixel
memo
metre
minded
nanometer
nascent
nathan
nationalist
nephew
nomination
northrop
norton
opinions
outing
overwhelmingly
particles
photographer
placing
plutonium
poses
presentation
prized
proclaimed
proven
pulls
punish
realize
recommendation
reductions
reference
residence
revamp
rocco
samuel
sandy
sends
signature
somewhere
stir
stunt
surviving
taba
tenth
terdiman
tiebreaking
toughest
towers
trek
trimmed
tripoli
tumble
twickenham
uair
ul
venue
vieira
vincent
walks
wannstedt
weakening
wellington
wentworth
woo
##0m
##ac
##arity
##bone
##cious
##con
##cture
##den
##feld
##gies
##icate
##ila
##ilities
##kers
##logist
##mal
##olo
##ots
##piring
##rain
##reen
##shed
##sville
##tain
##taking
##tics
##tis
##uising
##vis
##web
136
380
5bn
abandoning
accomplished
administrative
advised
apology
awe
bahamas
baron
barring
beautiful
biological
bizarre
blogging
bogus
buyback
caesars
carson
celebrations
chaotic
churches
circumstances
cite
clive
composite
couples
dash
dealer
defendants
defied
defying
delighted
demolition
detail
difficulties
discusses
doses
drunken
fingers
fires
fractured
franco
funny
genome
girlfriend
gradual
grass
gravity
guess
gunpoint
harmful
healthday
heroes
highlighted
homecoming
honour
horizon
humanity
implementing
implications
insects
intercepted
iraqs
jefferson
jiri
katerina
khatami
kit
lakshmi
lazio
lineman
losers
marketwatch
marxist
matsushita
mcgrady
mitchell
mittal
moo
munch
mysql
nebraska
nielsen
novak
onslaught
optimization
pasadena
pays
pen
playboy
pockets
populous
preferred
probes
publication
receives
refuse
rejoin
requests
rumor
sad
satisfaction
selig
sensation
simulator
skins
speakers
spying
staples
stranded
strict
superior
surplus
suspending
sybase
tayyip
tissue
trans
trim
troubles
unearthed
unofficial
vazquez
venerable
wachovia
wakefield
warne
websphere
wolverines
wrongdoing
youngest
##aging
##ative
##cence
##culate
##dled
##els
##fire
##game
##hold
##ition
##loaded
##ndered
##nding
##nia
##oa
##oned
##outs
##rity
##rum
##rx
##servation
##serving
##sty
##ued
##uel
##uk
##uma
##urn
##vent
##zzle
07
3bn
actual
addressed
adjust
arrington
ashcroft
authorized
autumn
babies
bae
banco
besides
bets
bloodiest
bow
bowling
builds
campaigners
catalog
cinema
collaborate
commercials
compelling
conclude
confidential
credentials
credibility
crippled
cue
darkness
daylight
debuts
descended
dinosaur
dismissal
doc
duo
edgar
elusive
entitled
exclusively
expired
explained
flags
flies
forged
frenzy
glance
grabbing
graduate
grokster
hijacked
imported
impoverished
integrity
intelligent
interceptions
interviewed
inventor
istanbul
julius
kilometres
kristen
kumble
laps
lazard
lease
lehmann
liquor
literature
locusts
malls
manufacture
mckenzie
mention
mentioned
meta
midsession
milton
minn
motogp
niche
niger
noise
obstacle
obstruction
ouster
permanently
pit
poisoning
populations
postpone
potent
prague
predecessor
predictions
prefer
pressured
proper
propulsion
provision
pubs
radioactive
raft
rainy
reception
regret
regulate
rex
roof
rowing
serves
sierra
skulls
slated
slot
slumping
snatched
someday
sometime
sooner
sophos
specialists
spray
subdued
surrendered
tata
tatiana
thedeal
trafficking
txn
unhappy
unnamed
usb
veerappan
verify
vick
wallets
welfare
widening
woodward
wr
##af
##all
##book
##books
##dicate
##eers
##ei
##front
##gling
##hu
##ifies
##kas
##lining
##mar
##nan
##ola
##pin
##rist
##rk
##rough
##sman
##uin
##urs
##usa
##ux
##ways
##wire
4bn
aj
alarm
amman
angered
archrival
artist
bcci
belonging
boris
bowed
buckingham
bulldogs
burgeoning
byron
cardiovascular
concession
concussion
consistent
conversation
coventry
crazy
creators
decides
defined
develops
dire
doom
editing
eggs
egyptians
emails
ethiopia
fashioned
fireworks
funai
garciaparra
gsm
guidelines
harbor
heinz
hook
icann
impasse
indications
intervene
isps
kicking
kirk
languages
lankan
laying
leander
lifetime
logistics
marijuana
marriott
mega
methane
misconduct
miserable
mob
mohammed
mpaa
nalbandian
netsky
netware
oliver
ont
organic
outspoken
owed
participation
patience
penny
physics
pixar
porter
prone
proud
racism
rebounding
recruiting
refuge
rev
rider
ringing
risky
ronald
sacrifice
safeway
sand
sc
scrapped
scrapping
screening
seas
seasonal
sharper
shia
showcase
shrimp
silva
sims
smartphones
smell
smuggling
snatch
span
springs
stack
substitute
surf
taj
tendered
tesco
trips
uganda
unified
vacuum
vault
victoria
warrant
wary
wbc
workplace
zemin
##04
##amp
##anda
##bert
##bit
##eak
##eted
##hir
##iah
##inger
##ises
##ivity
##kov
##lated
##liant
##matic
##mic
##million
##mine
##ntly
##ometer
##onso
##pi
##ria
##sc
##sx
##tin
##trust
##uish
##vating
##vic
##zo
##zza
149
386
a9
aerial
airing
ajax
albanian
alicia
anxious
assistants
attendance
autonomy
bettman
bidder
bonus
brisk
bubble
byrd
cache
cc
cheating
citizenship
clothes
comet
commonwealth
compatibility
copernic
covers
curtis
dakota
decapitated
demonstrations
describes
designers
dies
digging
docked
dont
doubling
doubtful
downer
drafted
ear
earning
elbaradei
establishing
establishment
everett
excessive
feb
felony
financier
flared
fleetboston
fm
focuses
footballer
gallery
georgetown
gloomy
gradually
greatly
happening
havoc
highlighting
ho
imposing
improbable
indicators
institution
intensity
iverson
jam
keane
kyodo
lawmaker
li
liability
lobbying
louise
maiden
marino
martinsville
memorable
mi
minaya
misery
mom
overseeing
pac
paisley
paralympic
parker
parking
pci
pickup
prediction
projection
prospective
purchasing
rbis
realized
recognized
restricted
revelations
reviewed
revival
rhetoric
roberts
rochester
root
saban
sacred
salaries
satisfied
sensational
shocking
shores
slap
slice
smiling
soap
sorts
spaceship
spilled
sting
subpoena
swappers
swimmer
thinkpad
tide
topic
trader
transformation
ubiquitous
vessel
victorious
wealthy
wisdom
wounds
yang
yum
zafi
##ado
##ave
##cky
##ein
##ello
##erve
##fs
##has
##holders
##ien
##ington
##izer
##lity
##lled
##mour
##ncies
##tated
##tical
##tling
##ttering
##udge
##wski
##zzi
1993
340
3d
agricultural
alien
alike
alpine
anonymity
appearances
assassinate
assume
attracted
attracting
awaits
axe
background
bags
bits
blitz
bloodshed
booking
boots
bottle
broadly
bundle
bust
buttiglione
candy
cautioned
cholesterol
chronic
circle
cites
colleges
commitments
communicate
complain
conservatives
conspiring
consultant
contentguard
convened
converged
daughters
diagnosed
diamond
disappear
dismantle
domination
douglas
drilling
duel
economics
ecuador
elaborate
elephant
endless
enormous
enthusiasm
eugene
exact
excluding
excuse
explains
ferrero
fiction
gainesville
geared
genuine
gerald
gilchrist
glaxosmithkline
glove
golfers
greenback
grocer
gunships
hacking
halting
heights
hints
hsbc
imperial
incursion
infamous
joel
keegan
kenny
kirkuk
kpmg
lava
leeds
legislature
lining
liquidation
lisa
loves
makeshift
masses
melvin
microchip
molson
mountainous
murdering
netted
newer
notable
oceans
ofcom
organisations
organisers
overwhelmed
participating
phillips
plummeted
populated
procedures
quell
quinn
quitting
racked
rand
random
reid
renew
renowned
repeal
restated
revolt
riots
rosenborg
santos
sarah
scramjet
sentences
sharks
shirts
sleek
somalia
spawn
steer
stinging
suburb
subway
suggestion
summoned
sunnyvale
suntrust
tee
telecast
tempe
thrust
tightly
timetable
travels
treasurer
tricks
tricky
tyco
ualaq
unharmed
upscale
vaccines
ventures
verisign
villeneuve
watches
waving
wiped
xstrata
##15
##acher
##boy
##city
##ean
##ero
##fa
##fies
##gging
##hg
##imo
##ji
##key
##lous
##low
##mond
##mons
##mping
##nick
##oos
##oy
##ption
##redo
##rew
##rid
##rns
##ros
##semble
##sia
##sk
##tel
##ubbing
##unted
##wear
##yant
##zi
##zzled
1bn
acted
albion
americas
anne
anthem
antispam
ape
applying
architectures
backman
beverage
biologists
bite
bombay
bovina
bracing
brewing
brighton
brokered
brushed
buckeyes
builder
bullet
busiest
cardiac
catastrophe
chambers
chanting
chants
chiron
claude
claudio
clusters
compare
confront
considerable
contributing
coordinated
corpses
courtesy
culpepper
customs
discovering
dismiss
diva
donations
drifted
ellis
endured
equestrian
equities
europes
evans
excellent
exploits
fdx
fincke
firmer
firstcall
fitness
flooded
foothold
forth
frame
francona
gbagbo
germain
glaus
granting
hadn
hampton
hardline
headache
herat
hop
hormone
hospitalized
hugely
ietf
injunction
integrates
irregularities
jpm
lan
laos
leslie
lesson
lieber
lover
maintaining
massu
math
mcdowell
mit
morale
mortars
mosques
murray
needing
neighbor
newton
nomar
oppose
p5
pan
parcel
parks
pave
pdf
penh
pepsico
personality
phnom
photographers
planted
plunging
polar
predictable
principal
punt
purported
pushes
ranges
rear
regularly
rematch
remnants
resumption
rhode
roberto
rode
rogge
rojo
roles
ruler
scoreless
separated
signalled
snapping
socialist
sole
spaces
speeches
stave
stefan
stirring
streaming
strongholds
sundays
surfing
surprises
surveyed
surveys
swamped
swiftly
tainted
tankers
teacher
tepid
thrashing
thumb
toledo
toppling
transistor
treating
tumbling
tungsten
unseeded
valve
void
widen
wildcats
wings
wishes
wondered
##arded
##bble
##boro
##charge
##cor
##craft
##cts
##dell
##ease
##eb
##fect
##gc
##harm
##iation
##khtar
##lie
##nell
##nyder
##ope
##pace
##phone
##reed
##roll
##sb
##sure
##tering
##tised
##uck
##ucker
##uins
##vated
##worth
1988
3com
accurate
adware
aere
africans
airliner
airplanes
alderson
arrangements
arresting
asaravala
ashore
avian
balloting
basayev
bbi
bells
belonged
beset
billed
biology
boats
bragging
bundled
burial
burns
cafe
capitol
carefully
cazenove
celebrates
chronicle
clearance
clerics
closes
colour
compromised
considerably
conversion
cousin
cracking
crippling
cure
curtain
deportation
devoted
dominion
ea
efficiency
elin
embassies
emi
enrich
esa
extends
fanfare
fantasy
farewell
favorable
feeding
feeds
fenerbahce
ferocious
finest
flames
floridians
flyby
freezing
ftc
geico
gilbert
goodbye
goodwill
grozny
hank
heir
hell
holiest
hutchison
inadequate
indigenous
induce
inspire
intentions
jacob
jarno
joachim
kills
kolkata
kuwaiti
ladies
lahoud
legislators
lightweight
linksys
lit
lloyd
logging
lured
midwest
ministerial
montenegro
movements
mydoom
navigation
neutral
nickel
nobr
nordegren
notified
nowitzki
obstacles
olympia
orton
oswalt
pablo
parachutes
paused
peaks
philipkoski
photographic
piled
plo
poultry
prefecture
premiere
prey
probation
protestant
proxy
psychological
publish
raceway
realm
reclaim
recreational
refineries
registry
removal
reopen
roaring
rouse
rutgers
ruth
salem
salmon
sandisk
saturdays
scorer
shade
shamil
shearer
sheep
shoulders
ski
soul
springfield
stricken
subsidiaries
succeeds
suspicions
sustain
taxpayers
teens
tentatively
thorpe
tops
touches
traction
underscoring
virtualization
webster
whale
winger
wore
##ades
##aping
##bbled
##bc
##bot
##cat
##cial
##cting
##ddy
##dicated
##ene
##erson
##ette
##eur
##gard
##gos
##heads
##hers
##hibit
##ines
##ively
##lize
##mark
##mbo
##mmer
##most
##nm
##ography
##oning
##oring
##rail
##ression
##rio
##row
##sian
##tile
##tock
##tore
##track
##uben
##udged
##ulate
##uled
##unction
##vas
##view
##yo
141
1973
265
3m
adelphia
adultery
adventure
alleges
amir
anytime
apes
aspects
authorize
automation
bangladeshi
bans
barbara
bennett
biometric
birdied
bishop
blows
bowled
breed
broadcasts
buick
captives
careful
casualty
celestial
cereal
chunk
coleman
communicator
concentrate
constant
contacted
cope
cornell
corrupt
couch
crept
croatia
cube
dampen
decent
defect
deportivo
depression
diana
directions
dirk
disappearance
displayed
dwyane
endorse
episode
eruption
examination
execute
exile
expelled
experiences
farms
filderstadt
fleeing
flowing
forecasting
frequently
gannon
headlined
hi
hide
hotspur
hugh
icy
ignore
implemented
infection
invade
irving
jews
julian
kerr
kidnappings
lasted
les
marvin
mat
maverick
merchants
mess
mogul
molik
montana
montoya
multan
namesake
naming
newsletter
nominated
outrage
overheat
overlooking
overthrow
panic
passport
peek
peoples
pep
pharmacy
photographs
plain
pledging
poisoned
porsche
pretax
procurement
projections
prolific
promotional
pumped
pure
quota
rebuilding
redwood
reilly
repay
reservations
respects
revision
ringers
rollout
rumours
ryanair
scans
scot
sensor
shaping
shea
shevchenko
skating
skeptical
solberg
specially
sponsor
stark
stays
sticking
stirred
stockpile
supercomputers
supporter
surely
switched
symbolic
tallahassee
teen
telephones
toe
totally
tracked
transistors
trent
unacceptable
vacancy
veto
wheels
woburn
wolfsburg
yielded
##ag
##aling
##ash
##bad
##bbed
##bon
##chy
##duct
##ea
##ena
##end
##ents
##fc
##fined
##ggins
##gp
##hdi
##hin
##ich
##ige
##inson
##ius
##ivation
##lio
##lizing
##mates
##min
##mination
##oil
##osh
##ows
##pack
##pect
##pit
##psy
##ratic
##rdes
##rive
##rsity
##sey
##sons
##stone
##tem
##uling
##ume
##ural
##urge
##vate
##vel
##wash
##yn
129
165
adopting
ages
allan
allied
altitude
ammunition
antarctica
arabiya
arbor
arthroscopic
articles
assumed
australias
authors
babe
barber
barnes
barriers
batman
bellamy
bhopal
blacks
bladecenter
boasts
bodyguards
bonuses
bore
borland
brains
brave
caller
chipsets
chittagong
collar
colleague
collections
comfort
compensate
complaining
configuration
connor
contaminated
converting
courtney
creatures
credited
daunte
debuted
deepening
demonstrate
depending
describing
dose
dram
echoed
edgbaston
editions
embarrassment
endorsement
explaining
exploited
extent
faded
favourites
ferry
filings
forty
freight
fruit
furcal
garnett
gps
greensboro
guardian
hardest
hare
hart
hicks
holtz
homemade
howe
hurled
iceland
inauguration
indias
insight
intrusion
jenin
jewelry
jong
jorge
judging
judiciary
jungle
keeper
keywords
khin
le
limiting
lloyds
lords
makeover
mcgahee
mclaren
michel
module
mubarak
mukesh
nagging
neared
negotiated
noah
nonetheless
nyunt
onboard
operational
ordeal
pattern
patterns
photograph
pinsent
plague
pork
portis
ports
preserved
priorities
proliferation
proponents
provisions
pumping
quentin
raging
ram
raul
reassure
recession
recruit
recruited
referred
reflected
regiment
reopened
respective
reversal
reviving
reynolds
righthander
roadmap
roaming
rockstar
rudi
sacking
sage
saves
sd
serbian
sergey
sgi
shelf
shifted
softbank
spite
spokesperson
sponsorship
spotlights
stormy
supplied
supposedly
surpassing
susan
swede
taught
terrible
trailed
trash
understood
unusually
venues
wasted
waterford
wipe
woody
zach
zimbabwean
##ada
##ader
##aka
##akes
##aki
##alie
##ani
##ast
##aun
##bal
##bank
##borne
##ces
##cu
##dded
##dle
##eled
##era
##eus
##ference
##ght
##group
##hd
##hem
##iating
##illa
##ime
##ken
##kovic
##law
##licate
##lock
##lu
##nter
##onic
##ort
##ose
##pher
##quest
##rified
##so
##titute
##uki
##vasive
##wall
##xi
##zzling
1000
121
166
1960s
1972
430
536
accession
accounted
aided
ancestors
antennas
apprentice
arbitrator
bagle
bang
bettis
bhutto
bike
boardroom
bogey
boosts
boot
bowing
brace
bribery
briefing
buck
bye
cardinal
caterpillar
cfo
chicoutimi
churned
clinic
clip
cmcsa
colder
collaborating
collecting
cologne
comfortably
compatriot
contend
cotton
creature
curfew
defiance
delio
destination
diabetes
dictatorship
dinosaurs
dirt
discipline
distant
donors
downed
downs
dragging
dreamed
dugout
easyjet
economist
educational
effectiveness
emphatic
entrepreneurs
exec
existence
expectation
exxon
fantastic
favorites
federated
feelings
fifty
financially
floors
foley
fraction
fuelled
ghazi
gigabit
glen
glitch
gmt
gore
graphic
grievance
guru
habitat
haq
holdout
holed
hurry
inciting
inclusion
incorporated
intimidation
introduces
jaschan
jeopardy
jock
keyhole
kinshasa
lagging
lavish
lawn
leonid
leverkusen
looting
mailing
manpower
maps
marbury
marie
matsui
meadows
mia
minors
mired
mobility
moral
moroccan
motivated
mtv
myers
neighbours
nhlpa
nominees
norman
nxtl
objects
observations
observer
olympique
omnimedia
organizer
outdoor
packs
paramount
permit
perspective
petter
phillip
prayer
pregnant
probable
programmes
prudential
reactor
reelection
replaces
resist
restrict
retaliation
ridge
rifles
riley
sanders
seasonally
semiconductors
sensors
separation
sided
sigh
skg
sleeping
smoothly
soaked
softer
somehow
sorry
sparkling
specialty
spiritual
sterling
stifling
stung
substances
supremacy
suzuka
tarnished
tds
teaching
tent
terminal
thaw
tighter
tragic
transformed
tuned
underlined
unspecified
verbal
wallet
watson
westerners
wildly
wonderful
worthy
wreck
yasir
youngsters
##64
##74
##aa
##ake
##ao
##asia
##atory
##balls
##bbling
##bby
##chard
##chen
##court
##dder
##erra
##gated
##gio
##gua
##hall
##hips
##hp
##ices
##icking
##iff
##igned
##ink
##ipe
##ires
##itation
##jet
##lete
##lia
##log
##mented
##mical
##name
##ndo
##news
##oes
##onson
##ops
##osur
##ound
##ource
##pie
##ques
##racing
##rative
##rdo
##rect
##rion
##rit
##rition
##rning
##rock
##rson
##ruct
##sembling
##set
##star
##sting
##tery
##tted
##ucci
##ution
##verse
##vine
##zen
155
190
330
aiding
airstrikes
andriy
artisan
assignment
auxerre
axa
azn
backdrop
bagwell
bandit
bats
batsman
bellhorn
benjamin
bidders
blueprint
brasilia
breakfast
bridges
brigham
bullets
californians
categories
christ
citroen
clarett
cloned
coached
cocoa
colors
commonly
completes
compuware
conflicting
congratulated
consultants
consuming
contrast
costco
costing
curry
decreased
deion
delight
demise
den
density
depend
deteriorated
didnt
diplomacy
dismissing
disrupting
divisive
dj
earnest
embroiled
emile
ensuring
epstein
escalated
essentially
ethernet
evaluating
execs
expertise
exposure
eyeing
feeley
fiedler
fightback
fiji
filipino
finalists
financed
finishes
fleetcenter
flexibility
founding
fresno
frustrating
gavin
generous
glow
greeting
guest
gunbattle
hicham
hk
homeowners
hyped
initiated
instantly
italians
jaw
jonny
kan
keen
kris
landover
laureate
lean
lighter
liked
lodged
lopez
mahal
mallorca
mapping
mcgrath
meaningful
mediterranean
megson
mens
mercedes
misled
monument
mp
multinational
nanny
newman
nextwave
notion
offenses
okla
openworld
outweighed
oversee
overtaken
packaging
paperwork
paso
pepper
perennial
persons
pesky
pet
phenomenon
photoshop
phrase
pioneered
pouring
premiums
princeton
probing
proceeds
propel
qb
qualification
queensland
referring
refund
refuses
regarded
relieve
renteria
rewarded
rica
richter
rid
rodgers
royalties
russell
saks
salesforce
salvaged
scream
sectarian
settler
sgt
shelter
sialkot
sihamoni
simultaneous
singing
slick
slogan
snack
solely
solving
soup
specifications
squarely
stabbed
steered
stent
stint
stoppage
stress
sumitomo
sweat
synonymous
ta
takers
taser
termed
territorial
thats
thrashed
thrilled
topple
travelling
truckers
tube
turbulent
turnout
unanimous
uncle
unilateral
vicente
voices
warfare
worn
xml
yale
yangon
##abi
##ained
##cker
##cular
##ddled
##ella
##equence
##eries
##eta
##eting
##ez
##ffed
##fight
##fill
##gent
##glers
##gt
##hid
##hr
##instein
##iss
##lator
##listed
##lla
##lton
##mers
##mouth
##ndering
##nic
##nroe
##oked
##played
##plement
##quer
##rayed
##rch
##restrial
##rolled
##rupt
##rville
##sible
##sided
##sn
##tech
##tured
##uba
##ulled
##umed
##union
##using
##varez
##vier
##xim
10g
260
585
8217
acceptable
acclaim
aces
adapt
airstrike
alcs
alzheimer
andrews
angrily
antidepressants
approving
architects
arguably
atlas
atoms
attendees
belmont
beloved
beltre
bison
bj
bleak
blunt
bogota
briefed
brooklyn
capacities
capitalists
castle
cattle
cedric
centres
chamber
charts
chinas
cigarettes
circles
classes
clout
concluding
conditional
convictions
copying
cosmic
crews
cry
ctia
customized
dam
defuse
degrees
deliveries
deteriorating
diebold
disciplined
discounted
dish
dismantling
dispel
distances
documentary
dogged
drastically
dressing
dynamo
endurance
envoys
est
evolved
exiled
exotic
expedition
exploiting
facilitate
fairfax
feud
flesh
fletcher
galactic
globally
gripped
hacked
handled
hanoi
hatred
heavyweights
herman
hideout
hindu
historical
hog
hokies
hovering
humiliating
hunted
hutu
ibook
ideal
illnesses
inactive
indefinite
indictment
infecting
installations
instructions
insufficient
invaded
invading
inzamam
iv
jackie
juice
justify
kahney
knesset
kosovo
ky
lagged
laundering
leftwich
liver
lowell
lu
lucas
macedonia
magnetic
mandatory
martnez
michelin
mideast
millar
mobil
moody
mothers
multiplayer
necessarily
nit
nke
noble
norwich
nova
npr
nz
oakville
obstructing
opel
orbiter
outlaw
overtake
paint
parachute
partisan
policymakers
propaganda
punitive
quotes
rbc
refinery
regardless
reminded
reserved
reshuffle
resigning
respectively
robbed
rookies
router
routinely
runaway
saboteurs
sagging
scenario
schalke
schmidt
schoolgirl
scoreboard
seagate
seo
serial
shining
shutting
shuttles
significance
smarter
sneak
spies
spiral
sponsors
sporadic
standstill
steinbrenner
stephon
stevens
stringent
suffers
sunk
sustainable
swarms
swisscom
tae
tailored
temperature
terminated
textiles
ticked
tones
tongue
tortured
transferred
trap
trulli
tunes
underdog
unfortunately
uniforms
upped
urges
varitek
violates
vows
warrior
welcoming
wendy
whoever
wielding
wilmington
wm
yuganskneftegaz
##abs
##ading
##adler
##aked
##ali
##aned
##ared
##assed
##bian
##bin
##cated
##cide
##cling
##dc
##dding
##dered
##ect
##enary
##ental
##eption
##ere
##fish
##gles
##grove
##hes
##holder
##hot
##hurst
##ibly
##ico
##ift
##iko
##ister
##keeper
##lane
##lers
##link
##logic
##nko
##ols
##onics
##onte
##oop
##ori
##osis
##pts
##rad
##rates
##raying
##rey
##rieve
##ril
##round
##roy
##ssion
##suring
##taining
##tary
##trial
##uash
##uder
##uity
##unting
##ust
##versity
##wan
##we
##wind
##works
##yan
##yed
##yes
1965
1989
200m
3000
41st
acceptance
actively
actress
adequate
adsense
affiliates
ahern
altered
altria
answered
apec
arabs
ashley
astronomer
authenticity
awarding
awful
azerbaijan
backward
bands
baquba
basel
beagle
benazir
bicycle
blake
bowlers
brightened
brin
brunell
builders
bulgaria
businessweek
canyon
cartoon
cave
ce
cemetery
cemex
certificates
champs
clinics
codes
collided
committing
competitiveness
concludes
contents
convenience
costas
counterfeiting
cpu
crate
crises
damien
dampened
darling
darrell
davie
dazzling
deemed
defer
delray
demonstrating
denies
des
destined
dictionary
directv
dissidents
distillate
distributors
districts
divisional
dodger
eden
editorial
elder
embraced
engaging
ensured
erasing
exists
faltering
farther
fishermen
freelance
froogle
glorious
gunned
guzman
ham
hamper
hampered
harvey
hilfiger
hispanic
hmcs
holland
hotspots
idf
indonesians
inflationary
intensifying
invite
irna
irregular
jackets
joke
jpmorgan
jukebox
kidde
knife
lag
lama
legg
leicester
leverage
liberia
locate
longhorns
lore
madden
mammoth
maneuver
masked
masri
mature
mccaw
mcnealy
meal
mediators
mercy
merriam
moderately
monkey
monza
mri
mudslides
multicore
muscles
mussina
mwd
nail
nasd
neighborhoods
neill
niigata
nursing
odyssey
packaged
panathinaikos
paragraph
passports
patriot
perception
persisted
pigs
pitting
placement
popularly
postponement
poweredge
practically
procter
programmer
protects
protester
quoting
rachel
rahul
ramsey
rash
reactions
rebuffed
recalls
reg
rejects
relax
resurgent
rewrite
richards
rite
rodney
rodrigo
rolen
scanning
schemes
sclerosis
scuffle
sheets
shelved
shifts
shortened
sink
siri
skeptics
skyrocketing
slaughter
softball
sovereignty
spat
spill
sprawling
spun
spurring
stata
stelco
streams
stumbling
subpoenaed
subsequent
superspeedway
tackles
tomb
tug
tumor
undermined
undermining
unheralded
unionized
unpopular
uzbekistan
vanguard
vastly
warsaw
welsh
wen
windfall
winston
wise
wooden
worsened
worsening
yemeni
yorke
zee
##95
##aid
##ara
##bound
##bourg
##brand
##cm
##das
##dd
##enberg
##ending
##erus
##ffle
##gold
##grant
##hire
##ib
##icted
##ieri
##ilant
##illo
##ios
##ita
##itable
##its
##kia
##labs
##lank
##lch
##lessly
##lieving
##lished
##mack
##mad
##minate
##mped
##mune
##nate
##nin
##nus
##olas
##olf
##onn
##ought
##oving
##partisan
##qi
##rait
##rea
##reciation
##reet
##rill
##rley
##rling
##rog
##rred
##rth
##sal
##sat
##shing
##sions
##take
##tones
##uda
##uilt
##umbling
##urst
##vid
##vident
##voking
##wave
##wi
##yman
100m
109
119
1981
8bn
950
9651165
ababa
accessible
accuracy
accustomed
acres
actors
acute
addis
advocacy
alerts
alessandro
amended
anbar
arabian
arenas
armor
arthur
assembled
atom
aussie
backe
bacteria
baggage
barges
battlefield
baylor
beam
behaviour
betrusted
bitterly
bothered
boxer
brazen
brees
broadcom
brom
bros
buddy
buffett
bumpy
buzzer
calories
calpers
cambodian
cameroon
cancellation
capitalize
capitals
carded
careers
carroll
casual
catalyst
ceremonies
chased
cheat
chilly
chuck
cian
cio
clad
clement
clogged
cnnfn
colon
colonel
comic
commissioned
connecting
contrary
coo
cooler
counsel
criticizing
crosby
cruciate
darlington
deadlocked
defamation
defends
dependence
deported
deputies
deserted
detailing
di
dilemma
directing
disks
distraction
dover
drastic
drum
dwindling
elegant
element
elementary
elton
emotions
emptive
encryption
enforce
entice
equaliser
equalling
equally
erased
erickson
excel
fernandez
fia
filtering
fisher
flex
flip
garage
geforce
generations
grants
grossman
grounded
han
heal
heralded
hideki
hood
hubie
hydroelectric
ieee
impaired
improves
inability
inexperienced
inflict
infringed
intensify
ion
italia
jamie
janet
jfk
kendall
kernel
kidnap
kingston
labeled
lafayette
larsson
lessons
ligue
locks
lofty
looksmart
lopsided
magna
malware
manages
marcelo
marry
meltdown
menu
midland
migrate
miniature
modeling
montgomery
morrison
mosley
multiyear
mystics
nadal
natwest
nears
nedbank
nonprofit
notched
nutrition
oak
obscure
occur
oq
origins
outlawed
pardon
parked
perfectly
periods
permitting
phonographic
pornographic
portions
presents
prolonged
propose
protested
provoked
pseries
query
radicals
raping
rashard
raucous
recep
refining
relationships
relies
renounce
represented
repurchase
rift
riggs
robby
rollins
rooftops
rugged
ruined
sbcspotrssfeed
scarves
sci
scourge
seals
sete
sewage
shadows
signatures
singel
skate
sloppy
smiles
smithfield
solana
spectator
sputtering
stabilize
stalemate
staley
stationed
staunch
stockholders
stride
studied
stumbled
subpoenas
sufficient
suicidal
sunset
t5
teeth
telescopes
tempered
thriving
touching
tremors
triathlon
trimming
troubling
tumultuous
twelve
ty
uae
umpire
unbeatable
undecided
unpaid
usher
vientiane
weaknesses
webber
weekends
wheaton
winding
xom
##55
##63
##acts
##ame
##aped
##arm
##aven
##aver
##ayan
##billion
##breaking
##broker
##builder
##cate
##cation
##cc
##check
##dling
##dox
##eau
##ences
##etter
##ffer
##form
##guard
##hant
##hat
##herty
##holes
##iable
##iculous
##ides
##ipping
##itor
##lifting
##lina
##lion
##lop
##lyn
##mes
##mn
##mont
##nched
##nik
##nounced
##oam
##oops
##opes
##ox
##pecting
##pedia
##pet
##pressant
##rams
##rched
##ribed
##rina
##rise
##rming
##rolling
##rooms
##rot
##rows
##rrell
##rrow
##sar
##sco
##siding
##sle
##smic
##tched
##thy
##tivity
##trom
##uiz
##ula
##uller
##unate
##vable
##vc
##vention
##vise
##visor
##yon
##zon
133
175
280
30th
401
425
6758
accepts
accompanied
accountant
afar
afraid
alarming
alberto
alto
analog
annoying
anxiously
apples
appoint
apps
aragones
ark
arsenals
assumption
assurances
astronomy
auditor
bastion
bath
batsmen
beaver
belongs
benign
berkshire
bertie
besieged
bextra
bi
blessing
blistering
bloated
borrow
branding
breaching
bred
brick
brighter
bulletin
bump
bursts
butt
butterfly
buzzing
calf
carr
certified
charleston
chemistry
ching
chorus
christina
citibank
clarify
cliff
colvin
commandos
comparing
consent
contradicting
cooking
cooperative
cop
copied
coruna
courthouse
creditor
criteria
curbing
daunting
deaf
dealings
decidedly
defenders
defrauded
determining
dialysis
didier
digitally
diouf
disappearing
disgruntled
diverse
dravid
eastley
egg
ek
emperor
emphasis
employ
entertaining
enthusiasts
epson
ethical
evaluate
experiencing
exploding
extradited
fdi
firmed
footsteps
forrester
francois
frederick
freeing
fronts
fullback
gainers
gamma
gaston
gears
genius
gibernau
guarantees
gut
ha
habits
hamburg
hazardous
header
henan
hijack
historically
hosni
hyatt
ignited
inappropriate
ingredient
insist
instability
internationally
irs
janeiro
jens
justified
kanpur
kashmiri
kettle
klinsmann
lacked
leiter
lenny
liabilities
libel
lied
lieutenant
logo
looted
lottery
lull
magnificent
mailed
maintains
manipulation
marquee
marseille
martian
mediocre
mercenaries
merged
midfield
monti
multiplex
nader
naked
nemesis
nerves
netegrity
observed
obviously
occasion
odp
offsetting
olive
olympian
oprah
ounce
ousting
outline
overpowered
painted
paradise
pared
penney
pepsi
pipe
pizza
pleas
pleasant
plummer
portrayed
practiced
pradesh
predators
principles
programmers
prompt
protracted
ps2
pub
quantities
quantum
ranch
rang
rb
readiness
recordings
refinancing
reflects
refunds
registering
reinforced
renegade
reply
reprieve
roar
rounded
rsa
sacks
salvo
santini
sarkozy
scholars
screaming
secretive
shame
siberian
simms
siro
sits
slack
slows
soar
softening
spadea
spinal
statehood
static
sternum
storing
swainson
tail
tallest
tapping
taxing
tiki
ton
treason
tremendous
tsb
tucked
tucson
turnover
umass
undercut
uneasy
unfairly
unisys
unite
uribe
vanished
vcr
vna
volcanic
volunteer
vrts
wagner
waived
weaken
westfield
wilkins
williamson
winfs
withdraws
worcester
wrapping
youths
yusuf
zombie
##79
##aal
##aco
##ail
##aining
##ances
##ational
##backs
##bes
##body
##bre
##break
##brew
##car
##cca
##cking
##clusive
##cos
##cycle
##ddling
##del
##du
##ducting
##due
##enching
##ep
##eration
##eria
##esus
##eva
##eve
##flow
##get
##gize
##got
##hand
##harma
##have
##holding
##hole
##iet
##iggy
##igh
##inary
##iner
##inho
##inx
##issa
##ites
##lf
##lic
##lift
##lks
##lux
##mara
##meanor
##mg
##monds
##naissance
##ngled
##ngo
##not
##nsen
##oh
##onia
##oom
##ouncing
##ove
##pages
##pan
##ply
##pper
##pted
##put
##rained
##raining
##ranked
##rat
##razi
##rer
##rics
##rix
##rose
##rring
##rst
##rying
##sess
##sr
##state
##td
##ths
##thur
##tie
##tinguished
##tives
##top
##tro
##ttered
##uched
##uis
##uished
##ulations
##ulling
##umble
##vance
##vantage
##vey
##ych
122
185
191
1984
2011
295
5m
8212
acer
adapter
adolph
advanta
aeronautic
ain
albany
alvin
ambushed
andrei
anglican
anna
anterior
anthrax
anxiety
apollo
arrangement
arrays
arteries
assuming
atari
attributed
azeri
backlash
baikonur
bailey
bambino
basescu
bbdb
behemoth
biomedical
blueprints
booster
boycotted
boyfriend
camden
catches
certainty
chipper
christians
comets
companion
conferences
congestion
congressman
conjunction
conscious
constantly
contests
cosmetics
coupled
crimson
dalai
deck
default
deterioration
dhabi
doj
drc
drilled
dulles
durban
ears
edinburgh
elan
enact
evaluation
eventual
exchanged
exodus
expiration
fever
fits
flocked
fortnight
fray
frightened
fruits
fungus
gandhi
gator
genentech
gibson
gonzalez
govern
gp
graves
grief
guerrouj
hadji
hamish
hasselbeck
hooked
hyderabad
ibrox
iconic
identities
immunity
inflate
infonet
inked
instance
integrating
intend
intentionally
irans
jebaliya
jol
judo
kroger
lamar
lashing
lavrov
leh
leon
leonard
levy
lifts
lisbon
locals
loomed
loyalty
luiz
lula
madras
malaria
marco
mask
massively
mclean
memos
messier
meteorological
mhz
midrange
midweek
migrants
moktada
monarch
mustafa
nadia
nanotechnology
naturally
newcomers
newsom
ogden
oilfield
ol
opted
outdated
outraged
overheating
overs
palo
patriarch
pearl
pegoraro
peres
persuading
petro
pippen
planting
polio
practical
prehistoric
pros
pundits
purnomo
putnam
quakes
que
rage
raged
raikkonen
ramon
rap
rato
realistic
reconciliation
recount
refueling
rehabilitation
remembers
ridden
rifle
rip
ripping
rogue
rower
rudy
ruins
rulers
satisfy
scared
scope
seniors
separately
shimon
shoaib
shrink
skiing
spaceflight
sparta
specialized
spider
splash
spoiled
standout
stansted
starring
steamy
streaking
stubbornly
suitor
sunny
sunshine
supermarkets
supremo
swapped
swelled
tabloid
terminals
theories
therapy
tomas
tonnes
totaling
traditionally
traian
trichet
tuning
turnpike
twinkies
ultrasparc
uprooted
usd
valderrama
vhs
viab
vz
waning
warmer
warrick
warring
waved
weakest
webb
weed
whistle
withstand
wolves
wong
workout
xavier
yearly
yusgiantoro
##ahan
##anek
##anisms
##asing
##ather
##can
##care
##case
##chers
##cier
##cracy
##cript
##dly
##dp
##dt
##ead
##ematics
##ever
##fb
##fd
##fused
##fusing
##gence
##getic
##gic
##hadow
##hawks
##hoe
##iac
##iano
##ict
##ider
##igorous
##ii
##illy
##ima
##inging
##iously
##itarian
##iya
##iyah
##iza
##ject
##keeping
##lad
##lations
##lby
##lical
##lier
##life
##lined
##lman
##lp
##lter
##luted
##lywood
##media
##minaries
##minous
##nis
##nned
##nte
##nzo
##ocated
##ode
##oller
##omp
##orian
##pheric
##pple
##pson
##ptive
##pur
##rable
##rance
##raphic
##rel
##rence
##rf
##rice
##ride
##rint
##rising
##rkin
##rner
##roads
##roat
##rton
##rust
##scent
##sheet
##tely
##uber
##ulated
##ultan
##uming
##urt
##uttle
##von
##while
##writer
##xter
##year
##zation
156
215
24th
a350
absolutely
accessories
accidents
acknowledge
addiction
adriano
advantages
advisors
afl
ahold
ai
albums
alejandro
algae
alou
amzn
analyze
app
appropriate
archbishop
archiving
arrivals
ash
ashes
assad
assure
audiotape
bancorp
battalion
beck
begged
belted
beside
betamax
blasting
blaze
blowout
boring
bowa
bowls
bpd
breeding
brendan
camacho
canceling
catastrophic
census
centered
cheers
circling
clever
climax
clips
clough
cnbc
collapsing
comparable
complications
confronted
consultancy
coordinate
countdown
countering
covert
crammed
cruz
daly
dancing
daniels
davies
debated
decrease
deepened
deposed
depressed
deserves
designate
diary
diminished
dispatched
docking
dormant
duck
eaten
ecb
edgerrin
edvard
eligibility
emergence
encountered
enduring
engage
engulfed
environmentalist
espn2
everyday
exceeding
excellence
facto
fancy
farming
forging
fossils
framingham
gail
gangs
gaz
geek
ghana
gloom
glowing
goalless
guwahati
h5n1
handicap
harrowing
hauled
hawk
heavens
helmet
henkel
hint
holyfield
horrific
howell
hubs
implicated
impression
inaugurated
incomes
incorporate
incredibles
infiltrated
infringing
ingram
inspiration
intriguing
invested
jabalya
jammed
jd
jessica
jimmie
jos
karmazin
kate
keyword
kickbacks
kluivert
koskie
lacks
laugh
leapt
linz
looms
lukashenko
machinery
macy
maddux
mandalay
mandated
mediation
melee
merging
minerals
moldova
monkeys
mot
mushroom
nablus
newmont
newsday
nixon
notch
nou
obligations
oecd
outfits
overhead
painting
paintings
pairing
participated
password
pavel
perks
peshawar
pharmacies
pilgrims
piper
plains
plough
poulter
precision
productive
prosperity
proteins
punished
railroad
raines
rapids
reads
recommending
regrets
reliability
religion
relying
requesting
restitution
retake
rfk
riddled
ritual
robbery
royalty
rsquo
safeguard
sake
sandwiches
sanford
scathing
sch
screamed
sebastian
secunia
seizure
sellout
senders
shah
sharers
shattering
sheer
shoots
shrugging
shuffled
siding
simmons
sisler
slate
slips
smoltz
sol
soliciting
somebody
speculative
stabilizing
staggering
stall
stamps
stating
sticks
storied
strait
stranger
swelling
sylvania
symptoms
teach
tend
terrified
thornton
thoroughbred
thriller
tier
till
tilt
tin
tn
trace
trapping
tressel
uc
unconfirmed
unsure
updating
uruguay
val
vernon
viable
villanova
vizquel
vying
wartime
wasnt
wasserstein
waterhouse
westbrook
willingness
winfrey
winnipeg
withhold
woodgate
wracked
wrecked
wrongly
ws
yours
youzhny
##32
##5m
##70
##aca
##acing
##afe
##agan
##aire
##atis
##ato
##avigate
##ban
##berry
##bers
##bie
##bling
##cht
##cl
##cq
##dated
##dez
##dles
##don
##edia
##electronics
##encing
##ented
##eological
##erations
##erger
##ergy
##ffing
##ffs
##gating
##gator
##gement
##geous
##hino
##hler
##horn
##hua
##hz
##iani
##ibilities
##illion
##imate
##imulate
##ined
##ingly
##isi
##jad
##jected
##jection
##lant
##lb
##lding
##lessness
##llah
##llegiate
##lls
##location
##mage
##mas
##may
##naut
##nde
##nded
##neft
##nest
##nson
##ntial
##ocation
##ood
##ored
##orn
##oting
##ottling
##ously
##pice
##pile
##planted
##pp
##rators
##rek
##rency
##rgen
##rieving
##riff
##rim
##ronic
##sei
##sellers
##serted
##ssell
##sson
##sys
##tage
##tan
##thing
##tity
##toon
##tructed
##udes
##ule
##ulse
##umps
##uo
##uple
##vail
##varo
##vist
##voked
##yce
##yden
##yers
##yi
##ystems
##zak
##zhou
116
143
164
181
198
202
213
440
725
7bn
90s
9228975
a1
absent
absolute
accidentally
accuse
achievements
acknowledging
additions
affects
agra
ailment
alexei
allegiance
alta
anheuser
applauded
arafats
armitage
arranged
asianews
aspirations
auctions
audiences
authorization
automobiles
averaging
averting
azzam
backpacker
basement
bashar
batter
bb
beard
bentley
bethesda
biogen
biting
blagojevich
bls
bnei
bono
boone
breakthroughs
breezed
brunei
brush
budgets
bulgarian
burlington
burnett
butch
canal
canucks
caretaker
catholics
cdma
chilling
clorox
combating
commissioners
competes
conceding
condemn
confederations
consolidating
controller
convenient
cook
cosmetic
cosmonaut
crisp
croatian
crocodile
crumbling
curious
danforth
darwin
db
db2
deceptive
deliberate
dented
departing
dependent
der
derrick
devised
diaz
disperse
donetsk
doughnut
downturn
dreaded
drogba
drugstore
durham
edonkey
elevated
elliott
emotion
etc
evander
exam
exanta
expression
famer
fathers
fatigue
figuring
finalist
fiorina
floodwaters
flores
flowers
foodland
formidable
franc
futility
g20
garner
gerard
gigabyte
gorda
goss
grabs
greeks
grouping
grove
guarding
guardsmen
gucci
guides
guiding
gum
handhelds
harrah
harrigan
hbo
heap
hears
heartbeat
holmgren
homosexuality
hoon
hoy
illicit
inacio
inexpensive
infections
infielder
inflicted
insights
intercontinental
interfering
interrupted
ipass
isp
j2ee
jelena
jetliners
jitters
joanna
juniper
justices
kandahar
karol
kazmir
kewell
kimi
kinds
kirkland
klm
lansing
lawless
lend
leukemia
liberties
lid
lingered
locust
loyalists
lpid0103035400730000idlp
mack
macworld
mafia
mahmud
mandelson
martyn
maui
mayorga
mcleish
mechanical
mechanics
memorabilia
messina
microchips
mineral
mitsui
mlb
modify
mongolia
motherboard
mysteries
natwar
nearer
negligence
neighbour
netratings
neville
nok
nordic
offenders
overdue
padalka
pairs
pandemic
paralympics
parma
partnered
partnerships
payout
peg
pensacola
percival
poaching
poles
ponder
postwar
pour
prep
printed
privatization
protective
publicized
punched
punta
punter
pursued
queens
racially
rack
racketeering
radios
radioshack
rallies
ramp
rampage
rats
rebuke
reconsider
regina
reinforcing
relaxed
relocate
returner
ribs
rmc
rumored
rusedski
russias
sailors
sardinia
sbux
schoolchildren
schwartz
segments
selecting
seminoles
sentencing
sham
shin
shouting
shrank
shwe
sin
sixteen
skeleton
slept
smb
snag
snaps
snapshot
sociedad
softened
solomon
somali
specializing
specter
sperm
spiked
spitz
splitting
stade
steadied
stereo
stoking
storming
straits
succeeding
supplying
swatch
sway
swimmers
swinging
syndrome
tables
tactic
tasr
technician
terrain
testers
themes
theyre
thomastown
threshold
throat
thwarted
tires
todays
tonights
trevor
trusecure
twisted
unabated
uncertainties
undercover
unpatched
unprofitable
upside
utes
vaunted
ventura
villarreal
voyage
vpn
waits
wed
weeping
weir
wheat
winged
wismilak
woke
workstation
writedown
wwf
yesterdays
zayed
##accurate
##action
##affected
##ahl
##ams
##anes
##ault
##aus
##ause
##aving
##avo
##awi
##bach
##bates
##bil
##bile
##block
##bow
##ceded
##charges
##cio
##ckey
##cp
##ctors
##dator
##dden
##dic
##dow
##downs
##dro
##efs
##egal
##eiro
##elling
##elon
##enched
##enson
##erers
##erman
##ete
##etic
##fari
##father
##fession
##ffman
##foe
##fred
##gerated
##gill
##gise
##guchi
##gun
##hal
##hang
##hara
##hia
##hic
##hle
##hmer
##icz
##idal
##ife
##ifting
##iji
##inian
##itations
##ith
##itions
##itory
##ivision
##izable
##keys
##kit
##kman
##lain
##lar
##laring
##lass
##laze
##lee
##lli
##marks
##minet
##mini
##ml
##mor
##mura
##muter
##muters
##nge
##nged
##nival
##nspired
##offs
##oking
##ond
##onian
##oran
##orie
##osy
##ouse
##perform
##posed
##pting
##rai
##rank
##rano
##ras
##rations
##rauding
##rdi
##riations
##rills
##rne
##rper
##rty
##rvine
##sely
##sessing
##sher
##shers
##sses
##stan
##standing
##tb
##tep
##theon
##thm
##tick
##tment
##trell
##troke
##trusive
##tters
##tu
##tucket
##tude
##ubbed
##uders
##uding
##ugitive
##uist
##ulon
##unts
##urned
##ursing
##ussa
##utter
##vaging
##vans
##vian
##wiki
##wo
##xed
##xgn
##xing
##zers
##zr
000th
126
182
1m
22nd
2nd
3rd
400m
40th
4th
4x100
745
990
accommodate
achieving
adt
advising
advocate
afghanistans
ahman
airtran
aka
alarmed
alcatel
algerian
alumni
analytics
anchor
andrea
appreciate
archive
armoured
ascent
attachments
autonomous
axed
az
bac
baltic
banners
bare
barnier
battering
bcn
beefed
benched
biased
blames
bledsoe
boilermakers
boldly
bordering
botched
bother
bouake
brass
bruno
budapest
buffer
campaigner
campuses
cannes
capitalizing
carmakers
caucasus
centric
centrifuges
cfl
challengers
champaign
chandra
cheated
cl
clayton
clearwire
clung
coffin
colossal
complexity
conciliatory
condemnation
confessed
consolation
cooperating
coping
corrects
cosmodrome
counterterrorism
craven
cricketers
cropp
curbed
cybercrime
darius
dartmouth
dear
debacle
debit
demonstrates
descendants
destructive
detainee
deter
devers
differently
digested
dining
dioxin
dipping
dislocated
dividends
dixon
doesnt
dynamics
earths
ejected
embarrassed
emmitt
employing
endure
environmentally
erase
erode
escalation
exempt
explorers
extradite
faithful
fallon
farina
farmington
festive
fibre
fiercest
fist
flock
footballers
footing
freescale
fse
fulfilled
gambro
gaps
ghost
ghosts
gilles
glasses
gnome
golds
gritty
grouse
grower
gunman
harvest
heats
hokkaido
homegrown
humiliation
incorporates
indemnification
indicator
infrared
ingredients
ins
insiders
intermittent
internationals
invesco
investigator
jackpot
jane
janjaweed
jeans
jerez
jesse
jiabao
journals
jumps
kayak
kbr
kde
kezman
khurshid
kilometre
knoxville
koose
kuchma
lamy
lauded
leaks
lengths
liberals
lip
liquidity
liu
ljubicic
lmt
logged
luggage
macs
manipulate
maradona
marching
maritime
mb
mba
mccants
mcteer
mentally
merit
micron
microscopic
mirage
mirror
misses
mistaken
mn
mordechai
moyes
muniswamy
mutineers
nagaland
netsuite
newcomer
nicotine
noting
nurses
oaks
ogo
opt
optional
overlooked
paced
pad
panda
panhandle
pascal
patty
peirsol
pence
permits
persuaded
philippe
physicist
piero
pioneers
pits
popping
possibilities
praising
precise
pregame
prisons
procession
profound
prosecute
publications
qassam
queries
quicker
rashad
rasheed
rashid
reasonable
redeploy
regard
regulated
reins
relevant
reluctance
remind
removable
rescheduled
reshuffled
restraint
revisions
richer
richie
rix
robbins
rocketed
rounder
sanctioned
sara
savage
savers
scarce
schering
scooped
scotia
scrimmage
script
sebl
sedan
sehwag
servants
setbacks
setup
sevenspace
shells
shine
shutdown
slovenia
slowest
smash
smbs
smokers
sne
socks
spacewalk
sparks
spawned
sped
spinoff
spiraling
spoofing
springboard
stacked
stadiums
staffing
standalone
strains
stretches
submarines
suited
sunrise
suspense
swim
switkowski
symc
tankan
tedford
terrapins
themed
timed
touring
tpc
transforming
transmit
travelocity
tremor
tributes
trilogy
umbrella
underscored
unh
unify
unionist
unleash
unwelcome
venetica
vfb
vicious
vow
vt
vx
walkout
warlords
watchdogs
weighs
weird
welcomes
wellpoint
whampoa
wirelessly
wrest
xserve
yemen
zhang
##!
##"
###
##$
##&
##'
##(
##)
##*
##,
##-
##.
##/
##:
##;
##=
##?
##\
##_